<unk>	0
<s>	0
</s>	0
▁the	-3.25274
s	-3.32929
,	-3.39497
_	-3.74837
▁of	-3.8729
▁and	-3.99967
▁in	-4.10255
▁to	-4.28957
▁a	-4.28964
▁	-4.69911
START	-4.76277
▁was	-4.84152
▁_	-4.9085
-	-5.03916
INE	-5.19541
NEWL	-5.1959
▁for	-5.23579
ed	-5.24784
._	-5.24872
▁The	-5.26712
'	-5.27557
ing	-5.33774
▁is	-5.35306
▁on	-5.3651
▁with	-5.39849
▁as	-5.42424
▁by	-5.49142
d	-5.52482
.	-5.53761
GRAPH	-5.56452
PARA	-5.56455
▁that	-5.58024
▁(	-5.59038
SECTION	-5.66863
)	-5.69357
▁at	-5.72527
▁from	-5.77152
▁his	-5.77499
e	-5.80716
y	-5.85105
▁"	-5.85218
▁he	-5.88527
er	-5.93297
t	-5.9805
ly	-6.04572
▁an	-6.05157
▁In	-6.08758
▁were	-6.136
n	-6.15054
a	-6.17529
al	-6.21463
"	-6.23188
▁which	-6.26844
▁be	-6.27302
▁it	-6.29149
▁He	-6.29152
▁A	-6.29808
th	-6.33528
▁are	-6.35368
o	-6.37517
i	-6.38378
r	-6.39275
▁had	-6.40998
▁also	-6.52669
▁or	-6.53944
in	-6.56296
▁has	-6.5642
es	-6.58107
▁first	-6.61069
▁S	-6.62719
ARTICLE	-6.67837
S	-6.67867
▁their	-6.68142
▁not	-6.69445
▁re	-6.70259
▁but	-6.74365
▁her	-6.75623
m	-6.78427
▁who	-6.81073
The	-6.81196
▁one	-6.83495
re	-6.8383
▁have	-6.84154
or	-6.8534
▁its	-6.85541
l	-6.86109
▁this	-6.86799
:	-6.89267
▁de	-6.91179
▁two	-6.91777
▁been	-6.93144
▁18	-6.94483
an	-6.95327
),	-6.95937
;	-6.96036
▁I	-6.96092
st	-6.97231
c	-6.99171
on	-7.02703
In	-7.03303
▁after	-7.05042
k	-7.05116
le	-7.05969
▁It	-7.06079
▁E	-7.063
ar	-7.06428
en	-7.06812
C	-7.07276
A	-7.08495
g	-7.09202
▁other	-7.09934
▁she	-7.10927
ic	-7.11528
▁over	-7.12197
▁C	-7.13173
u	-7.13224
▁time	-7.13324
h	-7.13622
▁into	-7.16499
b	-7.17509
▁all	-7.1853
▁they	-7.19175
p	-7.2003
ers	-7.20101
f	-7.20888
ation	-7.23299
▁out	-7.23468
z	-7.24418
▁would	-7.25111
man	-7.27557
▁when	-7.27853
P	-7.28152
▁up	-7.28252
▁F	-7.29871
▁more	-7.29939
▁New	-7.30166
il	-7.31114
▁P	-7.31519
▁years	-7.31545
▁new	-7.31589
E	-7.32741
▁can	-7.33717
▁where	-7.33838
ro	-7.33994
ra	-7.34314
M	-7.36645
el	-7.37032
de	-7.37111
D	-7.37277
na	-7.37559
B	-7.37815
▁D	-7.37825
▁him	-7.37991
I	-7.38942
▁B	-7.39244
us	-7.39587
ck	-7.41839
▁M	-7.42096
▁G	-7.42223
▁1	-7.42257
ne	-7.43163
▁during	-7.43493
▁under	-7.44078
▁T	-7.4454
T	-7.45236
ton	-7.45491
▁W	-7.45904
la	-7.45944
▁K	-7.46047
▁made	-7.46133
ma	-7.46531
▁only	-7.46696
▁O	-7.46794
▁This	-7.48324
at	-7.48926
ia	-7.49879
▁later	-7.50334
▁between	-7.5057
▁2	-7.51428
/	-7.51596
F	-7.52151
▁became	-7.5284
ist	-7.53485
▁such	-7.53668
ta	-7.53772
▁used	-7.53845
▁U	-7.5408
▁about	-7.54263
▁three	-7.54267
ion	-7.54789
O	-7.55069
li	-7.55115
▁part	-7.55202
▁On	-7.55349
▁She	-7.55766
it	-7.55778
R	-7.56117
L	-7.5625
▁than	-7.56257
ity	-7.57495
ke	-7.58093
G	-7.58424
to	-7.59026
w	-7.59182
▁year	-7.59412
et	-7.59432
▁most	-7.59507
ry	-7.59881
lo	-7.60086
▁De	-7.60659
▁Re	-7.6073
▁R	-7.61138
▁N	-7.61516
▁then	-7.61982
ce	-7.6225
▁some	-7.62555
▁no	-7.63229
▁University	-7.63235
▁work	-7.64265
ur	-7.6477
ir	-7.65034
▁there	-7.65283
te	-7.65443
se	-7.65744
ent	-7.66061
▁season	-7.66107
▁being	-7.66457
▁well	-7.66759
▁3	-7.66985
ate	-7.67058
is	-7.68154
x	-7.68793
▁un	-7.69232
N	-7.69357
co	-7.70358
ter	-7.70549
▁against	-7.70556
ian	-7.706
▁film	-7.70648
ive	-7.70792
▁through	-7.70833
ment	-7.71201
▁con	-7.71378
ri	-7.71564
son	-7.72193
▁including	-7.72345
um	-7.72708
▁many	-7.7281
id	-7.73395
▁team	-7.7426
▁St	-7.74483
▁United	-7.74789
▁second	-7.74892
▁life	-7.75264
▁before	-7.76083
▁while	-7.76823
H	-7.77703
ine	-7.78109
▁17	-7.78765
▁Le	-7.7881
W	-7.78811
▁school	-7.78874
▁so	-7.80193
▁them	-7.8023
▁until	-7.80645
▁Co	-7.81063
ha	-7.81894
able	-7.82108
as	-7.8246
▁La	-7.82655
▁both	-7.82669
▁L	-7.8275
am	-7.83881
▁known	-7.8396
%	-7.84663
ge	-7.85018
▁people	-7.851
ary	-7.85121
go	-7.85927
▁War	-7.86056
▁end	-7.86115
ul	-7.86308
▁American	-7.86824
ch	-7.86894
me	-7.86918
0	-7.87199
▁Ma	-7.87617
ga	-7.88429
▁After	-7.89232
ie	-7.89585
▁10	-7.90512
▁4	-7.90608
land	-7.91337
▁As	-7.91415
▁dis	-7.91564
▁will	-7.91586
ant	-7.92063
."	-7.92116
va	-7.92191
▁number	-7.92192
ol	-7.92234
age	-7.92479
ni	-7.93054
’	-7.93282
▁area	-7.93625
▁Mar	-7.93939
▁name	-7.94028
the	-7.9416
ty	-7.94524
▁16	-7.94649
▁e	-7.94831
▁Ha	-7.94887
▁May	-7.95056
▁School	-7.9529
ad	-7.95453
▁called	-7.95699
–	-7.96462
ated	-7.96508
nd	-7.96752
▁World	-7.97272
▁co	-7.9734
ve	-7.97374
ti	-7.97828
sh	-7.98388
K	-7.98473
▁H	-7.98624
ism	-7.98737
▁began	-7.98787
▁early	-7.98832
▁Al	-7.99593
▁same	-7.99676
▁career	-7.99801
▁15	-8.00113
▁home	-8.00342
mo	-8.00722
tic	-8.00847
▁back	-8.00862
be	-8.01001
▁several	-8.01247
der	-8.01398
▁four	-8.01425
un	-8.017
▁use	-8.01883
▁Pa	-8.02252
▁National	-8.03329
▁5	-8.03908
ll	-8.04604
▁family	-8.04611
▁pro	-8.05221
▁Ro	-8.05327
ut	-8.05335
j	-8.05693
",	-8.0623
▁John	-8.06581
é	-8.06881
▁States	-8.07116
di	-8.07548
▁Ra	-8.07692
▁do	-8.08022
▁game	-8.08088
V	-8.08184
da	-8.08366
▁won	-8.084
▁August	-8.08664
▁state	-8.08973
▁these	-8.09002
▁government	-8.09429
▁series	-8.09829
▁At	-8.09967
▁released	-8.10297
▁His	-8.10729
ance	-8.10744
▁music	-8.10842
▁played	-8.10885
▁Me	-8.10972
▁c	-8.11065
ies	-8.11277
▁city	-8.11365
▁June	-8.11424
▁album	-8.11448
▁South	-8.11547
▁September	-8.11549
▁could	-8.11767
ling	-8.12042
▁group	-8.1208
ba	-8.12312
▁may	-8.12394
▁Li	-8.12432
▁(19	-8.1254
▁found	-8.12685
▁York	-8.13007
no	-8.13206
▁March	-8.13258
▁7	-8.13752
▁6	-8.14387
ci	-8.14505
▁July	-8.14678
ca	-8.14687
ver	-8.14703
▁–	-8.1491
ley	-8.15167
▁They	-8.15184
▁local	-8.15253
▁October	-8.15407
▁12	-8.15491
ted	-8.15829
ud	-8.1592
▁January	-8.16154
▁pre	-8.16302
▁p	-8.16417
▁place	-8.16459
▁did	-8.16463
▁high	-8.16544
▁since	-8.16651
mi	-8.1666
2	-8.16999
,000	-8.17176
▁For	-8.17385
▁took	-8.17439
U	-8.17455
▁20	-8.17479
est	-8.17492
▁Na	-8.17927
▁To	-8.18032
ner	-8.18033
1	-8.18171
▁April	-8.1827
▁J	-8.18547
▁any	-8.19021
mb	-8.19171
▁long	-8.19439
▁Mo	-8.19967
▁each	-8.20145
▁public	-8.202
▁Ba	-8.20722
▁line	-8.20901
▁set	-8.20956
▁V	-8.21338
▁8	-8.21591
▁Con	-8.22111
▁company	-8.22196
ang	-8.22661
▁Sa	-8.23203
min	-8.23612
ru	-8.23705
ka	-8.238
▁November	-8.23855
▁December	-8.23967
▁However	-8.23988
▁named	-8.23989
mp	-8.24014
▁Be	-8.24041
▁war	-8.24848
▁land	-8.2501
▁age	-8.25065
up	-8.25148
▁Ca	-8.25238
▁No	-8.25297
▁received	-8.25298
▁m	-8.25773
▁around	-8.25869
▁said	-8.26052
▁own	-8.26404
▁City	-8.26597
▁North	-8.26618
▁per	-8.27184
▁left	-8.27591
▁An	-8.27884
▁system	-8.281
▁Ka	-8.28106
pa	-8.28163
▁member	-8.28189
▁History	-8.28298
ig	-8.2877
▁club	-8.29004
▁following	-8.29027
▁town	-8.29078
▁band	-8.29257
▁like	-8.2926
do	-8.29347
▁born	-8.29389
▁held	-8.29461
▁British	-8.2949
3	-8.29536
▁because	-8.29728
▁now	-8.29819
▁Bo	-8.29869
▁Se	-8.29984
00	-8.30203
▁day	-8.30326
way	-8.30646
▁off	-8.30684
ous	-8.31742
▁served	-8.32081
▁station	-8.32228
▁century	-8.32455
▁show	-8.32665
ster	-8.3276
▁single	-8.33084
▁due	-8.33282
▁Ta	-8.33283
ot	-8.33351
▁built	-8.33549
▁14	-8.33549
and	-8.3375
▁9	-8.33769
▁death	-8.33938
▁11	-8.34014
▁large	-8.34051
▁water	-8.34063
▁along	-8.34261
ence	-8.34323
ak	-8.34528
▁building	-8.34555
▁last	-8.34851
▁died	-8.35151
▁me	-8.35493
les	-8.35721
he	-8.36032
▁State	-8.36078
▁February	-8.3652
ally	-8.36848
▁Vi	-8.36927
▁13	-8.37076
vi	-8.37175
▁en	-8.37314
On	-8.37465
▁world	-8.37584
▁'	-8.37889
▁man	-8.3803
ow	-8.38478
im	-8.38493
▁small	-8.38618
▁College	-8.38843
He	-8.39175
ber	-8.39229
ler	-8.39252
▁million	-8.39429
▁final	-8.39529
▁moved	-8.39614
ho	-8.39722
▁There	-8.40394
▁car	-8.40463
▁down	-8.40533
▁national	-8.40608
om	-8.40654
▁San	-8.40728
▁Man	-8.4084
▁former	-8.40908
lu	-8.40972
▁support	-8.41419
▁still	-8.41548
con	-8.41644
hi	-8.41655
ac	-8.41911
ting	-8.41917
▁Po	-8.41943
tro	-8.42024
vo	-8.42239
▁members	-8.4261
▁ex	-8.42909
▁main	-8.42972
▁published	-8.42976
pe	-8.43181
▁play	-8.43251
▁another	-8.43414
▁included	-8.43524
▁song	-8.4353
▁son	-8.43787
▁population	-8.43793
▁Ho	-8.43845
▁very	-8.44345
▁post	-8.44475
v	-8.4452
ham	-8.44582
▁order	-8.44724
▁head	-8.44969
ther	-8.45024
▁five	-8.45027
▁power	-8.45125
os	-8.45139
▁&	-8.4516
▁children	-8.45173
▁if	-8.45209
▁side	-8.45266
rd	-8.45698
▁father	-8.45717
▁period	-8.45763
▁Gu	-8.45905
ating	-8.4591
▁those	-8.45961
wa	-8.46096
4	-8.46373
▁Car	-8.46556
den	-8.46576
▁late	-8.4662
po	-8.46637
mer	-8.469
▁Ar	-8.47174
▁Ga	-8.47371
▁service	-8.47571
▁km	-8.47622
▁book	-8.4775
per	-8.4781
▁form	-8.4788
▁include	-8.48141
▁f	-8.48168
▁Lo	-8.48276
▁different	-8.48393
ized	-8.4858
▁la	-8.48605
ard	-8.48634
▁based	-8.48647
▁within	-8.48695
▁what	-8.4884
▁led	-8.49067
bi	-8.49113
5	-8.49219
▁German	-8.49495
ish	-8.49532
▁Pro	-8.49609
▁located	-8.49629
▁West	-8.49747
▁di	-8.50255
▁law	-8.50385
▁way	-8.50586
ical	-8.50853
▁again	-8.50871
▁Do	-8.50934
▁make	-8.51003
men	-8.51038
▁house	-8.51103
▁major	-8.51383
ning	-8.51484
ven	-8.51714
▁men	-8.51897
▁came	-8.51941
▁near	-8.51945
▁history	-8.52141
ex	-8.53184
▁All	-8.53304
▁During	-8.53342
ger	-8.53409
ness	-8.53418
lin	-8.53473
ja	-8.53518
com	-8.53527
▁Her	-8.53748
▁French	-8.53987
▁often	-8.54014
▁went	-8.5429
▁just	-8.54399
▁County	-8.54443
▁title	-8.54766
▁League	-8.54872
▁El	-8.55011
▁b	-8.55181
one	-8.55221
)._	-8.55437
ities	-8.55528
▁much	-8.55558
▁started	-8.56121
▁London	-8.56147
▁third	-8.56231
▁original	-8.56264
▁US	-8.5641
ship	-8.56569
▁sp	-8.56733
ology	-8.56745
rs	-8.56833
mon	-8.57133
▁River	-8.57183
op	-8.57326
▁Z	-8.57488
line	-8.57895
▁Ne	-8.57923
▁Su	-8.57975
▁design	-8.58114
▁role	-8.58172
▁become	-8.58261
▁Pi	-8.58631
▁Park	-8.58645
▁30	-8.58655
ah	-8.59274
ki	-8.59411
▁short	-8.59455
▁present	-8.59495
▁ma	-8.59969
ide	-8.6004
za	-8.6008
by	-8.60296
▁II	-8.60491
que	-8.60612
ill	-8.60753
▁19	-8.61044
ding	-8.61124
▁development	-8.61476
▁take	-8.61563
▁sub	-8.61563
J	-8.61619
▁mo	-8.61676
ko	-8.6168
▁women	-8.61702
qui	-8.61827
▁announced	-8.62082
ff	-8.62134
▁village	-8.62231
▁inter	-8.62396
▁High	-8.62619
tra	-8.62728
▁English	-8.62738
▁established	-8.63002
▁even	-8.63086
ng	-8.63093
▁country	-8.63094
bo	-8.63149
▁north	-8.63203
▁joined	-8.63209
fi	-8.63218
ub	-8.63306
▁worked	-8.63348
▁next	-8.6396
▁King	-8.64224
▁returned	-8.6423
time	-8.64255
▁six	-8.64441
ward	-8.64476
▁X	-8.64507
▁non	-8.64519
ach	-8.64543
ap	-8.64851
▁married	-8.64923
8	-8.64946
tal	-8.65126
▁Hu	-8.65127
sa	-8.65219
▁So	-8.65299
ite	-8.65372
▁2010	-8.65546
▁students	-8.65738
tor	-8.65968
▁few	-8.66124
▁among	-8.66145
▁25	-8.66148
▁record	-8.66555
ee	-8.66948
▁When	-8.67021
▁International	-8.67094
less	-8.67742
—	-8.67795
▁production	-8.67853
ction	-8.68512
▁wrote	-8.6865
▁comp	-8.6913
em	-8.69163
▁best	-8.69348
▁House	-8.69351
▁Go	-8.69481
▁go	-8.69687
▁having	-8.69713
▁Ja	-8.69718
▁however	-8.6973
▁win	-8.6983
▁various	-8.7002
ture	-8.70362
▁Da	-8.70519
▁continued	-8.70692
▁total	-8.70717
old	-8.7073
▁-	-8.70745
▁top	-8.70788
▁position	-8.70931
▁using	-8.71198
ft	-8.71418
▁Ru	-8.71779
▁Church	-8.7186
▁Ko	-8.71988
▁south	-8.72107
▁political	-8.72132
▁control	-8.72412
▁point	-8.72548
▁site	-8.72664
▁general	-8.72871
sta	-8.72896
od	-8.72934
▁field	-8.73139
lic	-8.73209
▁special	-8.73515
▁East	-8.73549
ful	-8.73743
▁Lu	-8.73828
side	-8.73961
▁help	-8.74028
▁created	-8.74087
▁given	-8.74104
▁region	-8.74133
▁project	-8.7424
▁One	-8.7427
▁community	-8.74378
▁office	-8.74414
ong	-8.74619
gu	-8.74635
tan	-8.74779
au	-8.74815
ight	-8.74981
▁England	-8.75101
we	-8.75263
▁By	-8.75354
ial	-8.75498
nt	-8.75605
▁we	-8.7578
▁program	-8.75901
▁air	-8.75949
▁d	-8.75975
▁games	-8.76015
▁church	-8.76046
6	-8.76162
und	-8.76635
▁Fa	-8.76744
▁Pe	-8.76846
ya	-8.76857
▁2011	-8.76862
▁free	-8.77243
▁without	-8.77371
▁research	-8.77603
hu	-8.77796
▁Cor	-8.77808
tion	-8.77887
▁Ri	-8.78168
▁Per	-8.78227
▁business	-8.78464
."_	-8.78655
▁These	-8.79208
▁art	-8.79441
▁2008	-8.7955
▁William	-8.79694
▁run	-8.79752
gg	-8.79883
▁military	-8.79985
▁2012	-8.8015
ts	-8.80227
ab	-8.80276
▁example	-8.80394
▁Air	-8.80409
▁light	-8.80494
ina	-8.80564
▁Jo	-8.80862
our	-8.8087
▁President	-8.8105
▁old	-8.81097
▁process	-8.81116
▁Street	-8.81234
▁Di	-8.81246
▁General	-8.81324
▁Bu	-8.81406
▁Council	-8.81436
▁Mi	-8.81482
▁2009	-8.81486
▁se	-8.81581
▁George	-8.81693
▁France	-8.8175
▁round	-8.81751
▁li	-8.81759
▁every	-8.82096
▁(20	-8.82285
▁Ni	-8.82447
▁signed	-8.82459
▁full	-8.82466
che	-8.82791
han	-8.82804
▁video	-8.82902
▁Early	-8.83076
fa	-8.83368
fe	-8.83376
ations	-8.83516
▁daughter	-8.83535
▁live	-8.83556
▁human	-8.83578
red	-8.83737
▁similar	-8.8376
out	-8.83778
▁lost	-8.83788
]	-8.83841
dy	-8.83879
10	-8.83896
gi	-8.83913
mar	-8.84049
day	-8.84166
▁lead	-8.84267
▁director	-8.84284
field	-8.84458
▁Cup	-8.84571
▁v	-8.84692
▁district	-8.8472
▁opened	-8.84726
▁further	-8.84728
▁hand	-8.84799
ev	-8.849
▁produced	-8.8505
▁wife	-8.85092
▁European	-8.85093
▁important	-8.85139
▁international	-8.85152
io	-8.85154
▁2013	-8.85198
ana	-8.85208
▁social	-8.85212
▁right	-8.85226
▁2014	-8.85326
▁education	-8.85388
▁together	-8.85432
▁return	-8.85459
ise	-8.85474
▁Du	-8.85556
▁match	-8.85677
▁court	-8.85739
▁w	-8.85777
▁version	-8.85933
gar	-8.8596
▁days	-8.86014
▁“	-8.8604
▁mi	-8.86097
▁good	-8.86181
▁Act	-8.86523
7	-8.86576
▁21	-8.86591
▁Army	-8.86619
▁100	-8.86751
ring	-8.86781
▁himself	-8.86943
▁appointed	-8.87237
year	-8.87268
bb	-8.87293
▁result	-8.87303
50	-8.87337
▁Sch	-8.87458
gen	-8.87635
▁story	-8.87651
▁Te	-8.87674
ual	-8.87689
▁working	-8.87731
tch	-8.87863
▁g	-8.88059
ag	-8.88404
▁appeared	-8.8847
king	-8.88503
▁fa	-8.88505
▁2007	-8.88526
▁du	-8.88528
ium	-8.88568
▁addition	-8.88575
▁species	-8.8897
▁We	-8.89112
▁less	-8.89246
▁term	-8.89383
▁release	-8.89408
nk	-8.89472
ny	-8.89474
▁should	-8.89513
▁election	-8.89606
▁open	-8.89777
▁Ju	-8.89824
▁level	-8.89917
▁contract	-8.90179
á	-8.90252
▁ten	-8.90293
▁With	-8.90628
ville	-8.90634
▁half	-8.90739
ier	-8.90745
▁case	-8.90763
▁Dr	-8.90822
▁Wa	-8.90882
ration	-8.91213
▁road	-8.91219
▁ca	-8.9122
ition	-8.91617
▁works	-8.91722
20	-8.91736
sk	-8.91753
▁player	-8.91892
ron	-8.91938
ving	-8.91968
▁2015	-8.91975
▁considered	-8.92062
▁America	-8.92066
fin	-8.92134
▁get	-8.92162
▁start	-8.9225
ey	-8.92267
▁event	-8.9239
▁Ad	-8.92433
van	-8.92533
tter	-8.92613
▁described	-8.92645
▁tour	-8.92709
ct	-8.92862
ors	-8.92865
▁bar	-8.92989
▁popular	-8.93021
▁fire	-8.93138
ell	-8.93227
▁close	-8.93341
▁founded	-8.93479
▁Bi	-8.9351
▁James	-8.93571
▁Bar	-8.93741
.5	-8.93742
cur	-8.93855
▁mother	-8.93863
▁Royal	-8.93892
▁market	-8.94361
▁party	-8.94428
▁bi	-8.94439
▁average	-8.94475
▁making	-8.94601
ep	-8.94641
ator	-8.95033
▁Party	-8.95045
▁22	-8.95225
▁2016	-8.95432
led	-8.95595
▁Robert	-8.95685
▁interest	-8.96024
▁And	-8.96272
pi	-8.96297
▁stage	-8.96679
▁2006	-8.96813
X	-8.96818
ney	-8.96823
▁ship	-8.96887
ung	-8.97046
▁ground	-8.9705
▁California	-8.97092
ple	-8.97103
ford	-8.97195
▁degree	-8.97258
▁turn	-8.97306
ect	-8.97345
port	-8.9744
▁success	-8.97522
gan	-8.97596
▁anti	-8.97749
ph	-8.97872
▁Union	-8.97949
▁k	-8.98156
▁does	-8.98349
bu	-8.9836
▁debut	-8.98403
▁developed	-8.98415
▁formed	-8.98645
▁From	-8.9882
tin	-8.9884
▁modern	-8.98919
▁District	-8.98964
▁character	-8.98983
nce	-8.9901
▁attack	-8.99073
▁1,	-8.99123
▁see	-8.99149
▁campaign	-8.99173
▁Paul	-8.993
▁po	-8.99311
▁Hall	-8.9935
▁Court	-8.99385
▁al	-8.99408
ath	-8.99502
ai	-8.99534
▁style	-8.99662
▁Cha	-8.99761
▁Australia	-8.99923
▁elected	-8.99955
▁great	-8.99979
▁construction	-8.99989
▁never	-9.001
sen	-9.00163
▁sold	-9.0018
▁although	-9.00229
ization	-9.0036
val	-9.00412
▁0	-9.00546
ice	-9.00588
▁Mon	-9.00591
▁how	-9.00788
gue	-9.00873
▁Division	-9.00925
▁race	-9.01136
har	-9.01188
▁ha	-9.01357
▁Har	-9.01376
▁young	-9.0142
▁Col	-9.01456
▁remained	-9.0146
▁months	-9.01514
shi	-9.01548
lan	-9.01561
▁gave	-9.01568
▁bo	-9.01598
▁23	-9.01643
▁Association	-9.01691
▁body	-9.01747
ov	-9.01841
▁Si	-9.01867
cent	-9.01942
▁you	-9.02016
ik	-9.02116
▁recorded	-9.02189
▁Ed	-9.0223
▁miles	-9.02291
pp	-9.02313
▁r	-9.02316
sion	-9.02374
tu	-9.02397
▁mid	-9.02402
▁black	-9.02419
▁Fi	-9.02438
▁taken	-9.02508
▁ba	-9.02623
▁across	-9.02693
lar	-9.02704
▁coach	-9.02809
▁1990	-9.02814
▁author	-9.02981
▁though	-9.03273
▁Music	-9.03294
▁Pre	-9.03378
dic	-9.03602
uch	-9.03612
▁written	-9.03665
▁David	-9.03708
▁common	-9.03731
let	-9.0376
▁India	-9.0386
▁Canada	-9.03989
”	-9.04011
pro	-9.0418
▁sa	-9.04212
▁followed	-9.04214
▁Y	-9.0425
▁away	-9.04312
▁reported	-9.0438
▁24	-9.04388
▁real	-9.04545
▁living	-9.04582
▁front	-9.04612
▁times	-9.04678
▁low	-9.0476
▁2017	-9.04834
▁Company	-9.04878
▁ho	-9.04912
▁According	-9.05077
ren	-9.05892
ze	-9.06024
well	-9.06045
ji	-9.06091
▁Can	-9.06258
▁television	-9.06288
ble	-9.06324
▁sent	-9.06374
▁playing	-9.06685
ib	-9.06716
▁met	-9.06765
vis	-9.06844
▁center	-9.0688
▁brother	-9.06991
▁vi	-9.07046
▁put	-9.07124
tre	-9.07164
▁While	-9.0725
ay	-9.07257
▁(1	-9.07295
tt	-9.07301
▁Award	-9.07319
▁completed	-9.07337
wi	-9.0737
▁cr	-9.07543
2)	-9.07636
car	-9.07704
▁east	-9.07792
30	-9.07866
▁Am	-9.07869
iv	-9.07895
▁seven	-9.08019
▁provide	-9.08025
▁training	-9.08056
▁Some	-9.08061
▁practice	-9.08288
▁areas	-9.08292
res	-9.08305
▁Road	-9.08354
"._	-9.08502
▁Ex	-9.08526
▁deal	-9.08593
cul	-9.08641
▁Tra	-9.08655
.2	-9.08666
ign	-9.08672
▁Or	-9.08715
ral	-9.08787
act	-9.08809
▁must	-9.08843
▁study	-9.08863
cre	-9.08904
▁Indian	-9.08958
▁Club	-9.09015
oc	-9.09031
▁available	-9.09044
▁act	-9.09153
je	-9.09158
▁services	-9.09167
▁once	-9.09298
▁west	-9.09314
▁26	-9.09331
ran	-9.0935
▁travel	-9.09383
▁eight	-9.09551
▁eventually	-9.09738
▁28	-9.09817
▁performed	-9.09845
▁Art	-9.09866
▁Ya	-9.10097
▁space	-9.10116
▁track	-9.10163
▁football	-9.105
ions	-9.10651
off	-9.10701
tain	-9.10703
▁league	-9.10747
▁Europe	-9.10772
▁range	-9.10935
▁Germany	-9.10935
ris	-9.10953
▁hit	-9.10972
▁Center	-9.11127
▁1980	-9.11337
ten	-9.11364
▁t	-9.11552
▁performance	-9.11619
form	-9.11715
▁test	-9.11805
ified	-9.11813
▁Hill	-9.12192
▁designed	-9.12335
▁white	-9.12392
ou	-9.12424
▁finished	-9.12477
sis	-9.12529
▁square	-9.12626
Y	-9.12632
▁involved	-9.12666
▁trade	-9.12699
▁police	-9.12703
▁board	-9.12777
▁Roman	-9.12994
chi	-9.13065
▁seen	-9.1308
▁27	-9.13126
▁professional	-9.13204
tri	-9.13213
▁2000	-9.13236
▁private	-9.13299
▁section	-9.13353
▁novel	-9.13375
▁come	-9.13383
ker	-9.13399
of	-9.13475
▁throughout	-9.13616
ists	-9.13623
▁points	-9.13672
▁Island	-9.13703
▁2018	-9.13779
▁movement	-9.14191
▁tra	-9.14191
▁fall	-9.14241
▁2005	-9.14322
▁Department	-9.14414
▁my	-9.14492
▁Black	-9.14516
▁Che	-9.14519
▁base	-9.14556
kin	-9.14612
rt	-9.14668
▁First	-9.14792
▁Bay	-9.14898
▁able	-9.14915
▁Min	-9.15186
▁person	-9.15252
ure	-9.15356
▁leading	-9.15426
▁forces	-9.15471
▁official	-9.15556
▁Mu	-9.15623
ea	-9.15672
▁Thomas	-9.15694
▁Red	-9.15721
av	-9.15767
▁Society	-9.15861
▁Institute	-9.15888
▁Ver	-9.15916
.1	-9.15938
ries	-9.15995
▁im	-9.16058
her	-9.16173
▁1970	-9.16232
▁[	-9.16303
▁(18	-9.16331
▁president	-9.16348
▁Charles	-9.16463
▁Ge	-9.16516
ile	-9.16525
▁radio	-9.16654
▁featured	-9.1672
▁location	-9.16761
9	-9.16793
▁battle	-9.16798
▁cost	-9.1684
▁Ch	-9.16887
▁read	-9.16956
▁personal	-9.16967
▁saw	-9.16982
After	-9.17051
ku	-9.17053
▁Great	-9.17087
▁Gi	-9.17099
12	-9.17156
11	-9.17242
▁provided	-9.17247
▁Paris	-9.17253
ative	-9.17266
pt	-9.17319
▁college	-9.17474
▁language	-9.17625
▁current	-9.17781
▁host	-9.17828
▁information	-9.17881
if	-9.17949
▁Washington	-9.17993
▁Ti	-9.1807
▁Education	-9.18091
▁writing	-9.18152
ica	-9.18161
▁model	-9.18219
▁love	-9.18477
fer	-9.18496
nch	-9.18597
▁course	-9.18619
yl	-9.18708
▁class	-9.18799
▁rock	-9.18868
ore	-9.18926
all	-9.18967
▁Ph	-9.19137
▁events	-9.19247
▁Bre	-9.19304
▁Tri	-9.19396
par	-9.19406
▁strong	-9.1944
▁media	-9.19473
▁stated	-9.19522
▁night	-9.19578
nes	-9.19598
▁rest	-9.196
▁o	-9.19615
des	-9.19637
▁standard	-9.19707
▁killed	-9.19757
▁China	-9.19773
▁sc	-9.19924
▁upon	-9.20023
▁command	-9.20059
cc	-9.2025
vel	-9.20343
ize	-9.20404
▁Wi	-9.2049
▁Ab	-9.20494
▁African	-9.20533
▁decided	-9.20559
▁Australian	-9.2059
▁50	-9.20607
▁em	-9.20734
–19	-9.20759
▁others	-9.20966
40	-9.21023
house	-9.21058
▁health	-9.21118
▁Green	-9.21145
ments	-9.21275
▁room	-9.21347
▁Star	-9.2152
jo	-9.21564
▁change	-9.21659
ular	-9.21717
art	-9.21815
▁attended	-9.21876
ug	-9.21976
▁subject	-9.22095
▁trans	-9.22113
▁size	-9.22133
▁goal	-9.22194
▁But	-9.22391
▁Other	-9.22407
du	-9.22421
▁Gra	-9.22468
▁Group	-9.22565
▁division	-9.22581
▁either	-9.22587
▁network	-9.22589
can	-9.22736
▁engine	-9.22862
▁river	-9.23077
▁pa	-9.231
▁move	-9.23295
▁collection	-9.2333
lli	-9.23371
▁Th	-9.23393
ns	-9.23476
▁farm	-9.23573
▁tri	-9.23632
ett	-9.23662
▁Christian	-9.23794
")	-9.23795
▁En	-9.23856
▁call	-9.23899
▁added	-9.23922
▁Force	-9.2394
▁route	-9.23985
si	-9.24011
▁past	-9.24136
▁flow	-9.24169
It	-9.24296
▁Ke	-9.24317
▁Lake	-9.24345
▁super	-9.24349
▁date	-9.24388
▁awarded	-9.24555
▁function	-9.24571
▁Service	-9.24591
▁2004	-9.24643
14	-9.24688
▁brought	-9.24713
▁Peter	-9.24736
▁island	-9.24737
▁cover	-9.24738
▁replaced	-9.24831
▁Japanese	-9.24886
▁far	-9.24989
ue	-9.25052
born	-9.25134
burg	-9.25404
▁Minister	-9.25434
over	-9.25636
▁view	-9.25659
▁Academy	-9.25736
▁Bro	-9.25979
hy	-9.26079
▁Mac	-9.26112
▁active	-9.26184
▁White	-9.2622
▁1999	-9.26338
▁imp	-9.26369
▁Hi	-9.26489
▁29	-9.26495
▁Tu	-9.26554
end	-9.26582
qu	-9.26586
▁UK	-9.26625
(	-9.26644
vent	-9.26646
vin	-9.26728
lk	-9.2684
▁Sal	-9.26841
▁competition	-9.2685
▁episode	-9.26867
▁cross	-9.26974
▁lo	-9.26987
bar	-9.26992
serv	-9.2703
▁list	-9.27069
ix	-9.27207
▁1960	-9.27214
▁aircraft	-9.27229
▁decision	-9.27372
▁originally	-9.27418
▁countries	-9.27496
▁break	-9.27556
ok	-9.27704
▁Hol	-9.27708
▁plant	-9.27771
.4	-9.27823
-19	-9.27887
ick	-9.27891
▁Chinese	-9.27902
▁introduced	-9.27903
cha	-9.27955
▁Championship	-9.28007
▁park	-9.28101
so	-9.28128
mal	-9.28137
▁wide	-9.28221
▁features	-9.28295
▁soon	-9.2836
row	-9.28419
▁largest	-9.28494
▁Shi	-9.28573
▁rate	-9.28583
▁Mc	-9.28626
▁TV	-9.28688
▁Central	-9.28715
▁Henry	-9.28727
▁gra	-9.28899
▁Western	-9.28919
▁rather	-9.2893
ari	-9.28958
cu	-9.29067
.6	-9.29178
ological	-9.29226
part	-9.29261
long	-9.29449
13	-9.29663
▁usually	-9.29763
▁traditional	-9.29767
ec	-9.29794
▁Japan	-9.29946
ino	-9.2998
▁Cla	-9.30067
▁behind	-9.30074
q	-9.30153
▁Museum	-9.30166
▁40	-9.30207
use	-9.3026
▁na	-9.30284
▁Life	-9.30357
▁outside	-9.30421
ps	-9.30481
don	-9.3055
ius	-9.30552
▁access	-9.30644
▁via	-9.30672
lt	-9.30696
▁least	-9.30711
wood	-9.30769
▁ti	-9.30772
▁Although	-9.30773
tz	-9.30865
▁Han	-9.3089
ised	-9.30989
▁Richard	-9.31019
▁meeting	-9.31034
▁Russian	-9.31048
ara	-9.3108
war	-9.31098
▁Saint	-9.31122
▁store	-9.31145
▁force	-9.31211
cy	-9.31221
▁groups	-9.31248
▁sea	-9.31384
▁successful	-9.31413
▁cause	-9.31438
▁Pri	-9.31529
▁culture	-9.31594
back	-9.31606
▁Catholic	-9.31646
▁reached	-9.31675
▁fact	-9.31834
▁possible	-9.31926
▁previous	-9.32064
▁Un	-9.32085
▁clear	-9.32162
▁Je	-9.32393
▁rights	-9.32482
▁Day	-9.3253
ö	-9.32566
▁fi	-9.32594
▁summer	-9.32604
▁Science	-9.32658
▁instead	-9.32724
▁almost	-9.3276
ves	-9.32806
▁mission	-9.32859
ible	-9.32966
▁experience	-9.3307
ef	-9.33192
▁central	-9.33285
▁placed	-9.33397
▁1998	-9.33464
▁songs	-9.33526
▁My	-9.33545
▁week	-9.33561
rate	-9.33654
▁plan	-9.33699
▁above	-9.33701
cal	-9.33712
▁increase	-9.33736
▁Career	-9.33817
▁friend	-9.33871
ious	-9.33985
ek	-9.34078
▁bank	-9.34216
▁31	-9.34318
▁organization	-9.34369
▁account	-9.34417
▁female	-9.34465
▁Ben	-9.3449
▁Mal	-9.34506
lit	-9.34532
▁economic	-9.34592
ric	-9.34621
ox	-9.34622
▁structure	-9.34624
▁changed	-9.3463
mes	-9.34648
▁Fo	-9.34713
▁Chi	-9.34786
▁Michael	-9.3482
▁scored	-9.34841
▁che	-9.34868
▁hi	-9.34876
▁magazine	-9.34877
rie	-9.34902
▁broadcast	-9.34919
ks	-9.34932
60	-9.34964
▁Pu	-9.34978
▁Ku	-9.34986
berg	-9.3511
▁Grand	-9.35292
▁action	-9.35295
ez	-9.35297
▁beginning	-9.35302
▁Bur	-9.35308
▁itself	-9.35345
▁lower	-9.35375
ants	-9.35436
ip	-9.35719
▁whose	-9.35818
su	-9.35827
▁little	-9.35873
▁allowed	-9.35922
▁le	-9.35934
ability	-9.35962
▁Law	-9.36165
▁report	-9.36259
▁Committee	-9.36293
▁approach	-9.36332
▁ran	-9.36397
75	-9.36574
ever	-9.36665
▁writer	-9.3672
pre	-9.3684
▁relationship	-9.36847
▁Tom	-9.36889
▁$1	-9.37036
▁unit	-9.3704
▁cap	-9.37079
▁schools	-9.3713
lor	-9.37137
19	-9.37287
▁find	-9.37505
▁hard	-9.37591
▁Los	-9.37628
for	-9.37687
ita	-9.37728
▁Africa	-9.37756
▁Cal	-9.37778
▁child	-9.37887
▁create	-9.37924
low	-9.38034
▁text	-9.38137
zi	-9.38212
▁Mary	-9.38495
▁Super	-9.38527
▁ta	-9.38574
▁Mor	-9.38598
lip	-9.3861
Z	-9.38649
Ma	-9.38813
▁Spanish	-9.38956
▁players	-9.38985
▁spent	-9.39081
▁whom	-9.39089
▁natural	-9.3929
▁require	-9.39361
▁independent	-9.39362
▁taking	-9.39363
ura	-9.39431
▁value	-9.3953
▁industry	-9.3959
▁2010,	-9.39659
▁1997	-9.39693
▁army	-9.39782
▁pe	-9.3988
▁Later	-9.40013
▁commercial	-9.40025
15	-9.40128
▁Va	-9.40169
my	-9.40205
ates	-9.4021
ping	-9.40227
▁type	-9.40247
▁red	-9.40251
ons	-9.40271
▁student	-9.40279
▁Rock	-9.40327
▁Sea	-9.40527
▁2003	-9.40638
▁Italian	-9.40656
▁shows	-9.40694
sky	-9.40727
▁pl	-9.40803
▁God	-9.40879
▁books	-9.40902
▁Sha	-9.40999
▁ne	-9.41048
▁Second	-9.41157
▁money	-9.41238
▁Yu	-9.41351
▁future	-9.41418
▁studied	-9.41444
▁states	-9.41481
▁cast	-9.41488
▁Gar	-9.41488
▁1996	-9.41538
▁attempt	-9.41715
▁Qu	-9.41747
cle	-9.41804
light	-9.41943
▁thought	-9.42124
ju	-9.42173
ole	-9.42213
mor	-9.42217
yn	-9.42244
▁Smith	-9.42281
▁Q	-9.42346
▁ever	-9.42517
▁studies	-9.42644
▁centre	-9.42822
▁si	-9.42839
▁block	-9.42874
▁operation	-9.42955
▁Bra	-9.42981
▁Port	-9.42994
ned	-9.43032
▁need	-9.43111
▁especially	-9.43134
▁includes	-9.43138
▁significant	-9.43149
▁feet	-9.43156
▁required	-9.43215
istic	-9.43284
▁2014,	-9.43315
▁capital	-9.43438
town	-9.43533
▁teams	-9.43534
▁app	-9.4358
mm	-9.43619
▁fight	-9.43653
▁Film	-9.43693
▁keep	-9.43753
▁ge	-9.43764
▁Board	-9.43821
▁towards	-9.43837
▁data	-9.43842
▁Since	-9.43968
cing	-9.43974
▁regular	-9.43981
▁influence	-9.44037
▁Inter	-9.44048
▁score	-9.44055
▁2015,	-9.44105
▁2011,	-9.44132
▁lived	-9.44188
▁Canadian	-9.44238
80	-9.44348
▁Government	-9.44355
▁2012,	-9.44448
win	-9.44515
▁charge	-9.44571
▁Pan	-9.44592
▁higher	-9.44597
og	-9.44658
▁food	-9.44718
▁job	-9.4477
▁fe	-9.44802
▁ob	-9.44915
▁defeated	-9.45024
wo	-9.4506
bit	-9.45138
lla	-9.45199
ani	-9.45276
▁Texas	-9.4528
▁shot	-9.45284
lia	-9.45333
▁2001	-9.45356
ches	-9.45357
▁buildings	-9.45623
▁self	-9.45625
▁1995	-9.45658
▁units	-9.45676
▁2013,	-9.45719
▁opening	-9.4572
▁length	-9.45812
ew	-9.45844
▁thus	-9.45862
hen	-9.45935
▁recording	-9.46032
▁Win	-9.46057
tur	-9.46067
▁Soviet	-9.46193
▁ro	-9.46224
▁Ve	-9.46277
▁already	-9.46365
cla	-9.46365
▁Sir	-9.46378
▁gold	-9.46388
▁operations	-9.46407
▁certain	-9.46419
▁sound	-9.46518
▁review	-9.46638
kh	-9.46719
▁studio	-9.46777
▁ft	-9.46868
▁railway	-9.46898
ü	-9.46948
tern	-9.47077
▁care	-9.47195
▁pi	-9.47196
▁Louis	-9.47213
▁seat	-9.47244
▁focus	-9.47277
rm	-9.47324
▁Chicago	-9.47353
iti	-9.4739
▁2016,	-9.47409
bin	-9.47451
tle	-9.47509
aw	-9.47584
▁individual	-9.4765
▁Sp	-9.47701
▁Mr	-9.47749
▁legal	-9.47759
iz	-9.4789
▁Year	-9.47933
▁winning	-9.47987
chan	-9.47989
shire	-9.48009
▁sister	-9.48012
▁paper	-9.4804
▁hospital	-9.48054
▁2002	-9.48067
hal	-9.48195
▁movie	-9.48209
▁Fu	-9.48226
▁month	-9.48231
▁image	-9.48269
▁activities	-9.48329
▁sh	-9.48397
17	-9.48457
TV	-9.48469
air	-9.48485
▁2009,	-9.48503
▁earlier	-9.48505
▁question	-9.48506
▁leader	-9.4851
▁Two	-9.48518
▁Vo	-9.48581
bert	-9.4866
▁ended	-9.48667
▁Festival	-9.48693
▁fourth	-9.48694
▁primary	-9.48704
▁cha	-9.48766
▁woman	-9.48804
16	-9.48845
based	-9.48899
▁according	-9.48925
▁surface	-9.48981
▁prior	-9.49006
▁Sta	-9.49081
xi	-9.49117
ming	-9.49155
▁Sun	-9.4926
ult	-9.49263
▁pass	-9.49267
▁face	-9.49293
).	-9.49404
cus	-9.49416
▁material	-9.4951
▁currently	-9.49605
▁Za	-9.49622
▁Brown	-9.49627
ians	-9.49718
▁1950	-9.49727
▁Battle	-9.49748
▁staff	-9.49772
▁property	-9.49775
▁entire	-9.49827
▁prevent	-9.49901
▁newspaper	-9.49905
▁increased	-9.49986
▁1994	-9.50019
ade	-9.50041
▁Arts	-9.50073
!	-9.50088
▁1992	-9.50142
▁cut	-9.50145
▁interview	-9.5016
▁candidate	-9.50174
▁bomb	-9.5022
▁complex	-9.50354
ken	-9.50389
ins	-9.50485
▁su	-9.50535
lum	-9.50665
▁train	-9.50695
▁2017,	-9.50857
ens	-9.5086
▁pay	-9.50902
pir	-9.51051
▁Kingdom	-9.51055
▁2008,	-9.51059
▁Congress	-9.51109
▁cor	-9.51135
▁launched	-9.51153
▁couple	-9.51224
▁entered	-9.51273
▁manager	-9.51428
▁lack	-9.51482
▁Com	-9.51539
▁meet	-9.51577
ets	-9.51628
ria	-9.51707
▁Public	-9.51735
▁give	-9.51758
▁companies	-9.51861
tation	-9.51982
▁va	-9.5199
pri	-9.51993
▁Fe	-9.52028
din	-9.52035
▁op	-9.52228
▁too	-9.52258
▁senior	-9.52307
▁Edward	-9.52313
▁evidence	-9.52318
▁speed	-9.5238
▁organ	-9.52433
▁numerous	-9.52444
▁loss	-9.52466
▁Sam	-9.52486
▁passed	-9.5249
▁previously	-9.52493
90	-9.52499
▁Martin	-9.52584
▁Par	-9.52777
▁forced	-9.52787
sur	-9.52866
-1	-9.52886
25	-9.52933
vest	-9.52991
now	-9.5304
▁Lord	-9.53317
▁share	-9.5335
▁means	-9.5346
▁Angeles	-9.53464
▁issues	-9.53468
▁closed	-9.53492
▁stand	-9.53558
ase	-9.53589
uk	-9.53626
▁comm	-9.53627
▁Work	-9.53729
▁generally	-9.53734
▁boy	-9.53743
rk	-9.53761
▁para	-9.53762
▁Men	-9.53767
bra	-9.53783
gre	-9.53809
▁northern	-9.53833
▁caused	-9.53891
▁separate	-9.53894
▁Queen	-9.53982
late	-9.53983
tes	-9.53984
▁additional	-9.54
▁husband	-9.54029
▁Bal	-9.54075
▁tax	-9.54077
dra	-9.54159
▁artist	-9.54207
▁Wo	-9.54233
▁going	-9.54235
▁king	-9.5424
ory	-9.54256
▁document	-9.54282
▁Don	-9.5434
▁Parliament	-9.54356
▁color	-9.54361
▁border	-9.54556
▁issue	-9.54604
▁science	-9.54614
▁becoming	-9.54652
.3	-9.5467
lon	-9.54712
▁(2	-9.54722
–1	-9.54728
...	-9.54736
pen	-9.54841
ification	-9.54956
▁1993	-9.5498
nn	-9.5501
ged	-9.55031
▁look	-9.55042
▁Dan	-9.55043
▁championship	-9.5511
int	-9.55189
▁southern	-9.55227
ire	-9.55285
▁financial	-9.55344
▁ball	-9.55525
▁older	-9.55556
▁teacher	-9.55556
▁Nor	-9.55612
ved	-9.55781
▁camp	-9.55855
ese	-9.55876
▁sha	-9.55934
▁exist	-9.56
ō	-9.56044
▁Cu	-9.56146
▁street	-9.56187
▁directed	-9.56188
mit	-9.56191
▁chief	-9.56372
▁better	-9.56374
hr	-9.56404
▁our	-9.56464
play	-9.56477
▁Personal	-9.56593
sch	-9.56623
▁concept	-9.56774
sco	-9.56793
lam	-9.56805
ette	-9.56851
▁Republic	-9.56853
▁serve	-9.5687
▁Ireland	-9.56941
▁lu	-9.56974
▁religious	-9.57133
lay	-9.57168
aries	-9.57205
▁Greek	-9.57248
mark	-9.57267
▁troops	-9.57289
▁families	-9.57318
▁Railway	-9.57362
▁victory	-9.57386
▁hu	-9.57444
▁raised	-9.57449
▁bus	-9.57486
▁initially	-9.57509
▁1991	-9.57519
▁bridge	-9.57528
▁sometimes	-9.5762
▁nation	-9.57663
gra	-9.57694
▁complete	-9.57742
▁edition	-9.57757
▁appearance	-9.57763
▁Under	-9.57794
▁produce	-9.57844
▁Bas	-9.57919
▁got	-9.57949
ome	-9.57979
▁running	-9.57988
▁response	-9.58003
▁Mag	-9.58013
▁pen	-9.58043
▁direct	-9.58078
▁Pra	-9.58102
–0	-9.5814
stone	-9.58207
▁mar	-9.58267
▁owner	-9.5829
▁Tre	-9.58336
▁Ser	-9.58346
▁themselves	-9.58355
▁effect	-9.58405
med	-9.58427
▁2007,	-9.58433
▁supported	-9.58472
pur	-9.58545
nic	-9.58607
▁nine	-9.58625
▁Mad	-9.58626
▁purpose	-9.58638
uc	-9.58685
rit	-9.58753
47	-9.58861
▁Director	-9.58866
▁honor	-9.58889
▁photograph	-9.58895
▁dance	-9.58908
▁fo	-9.58918
▁Bank	-9.58934
70	-9.58941
55	-9.58955
▁port	-9.58971
fo	-9.58992
▁particularly	-9.59003
▁murder	-9.59015
▁Joseph	-9.5906
▁Cre	-9.59194
▁arm	-9.59235
▁horse	-9.59385
As	-9.5942
pper	-9.59506
▁famous	-9.59507
▁receive	-9.59534
▁limited	-9.59576
mic	-9.5969
cher	-9.59747
ola	-9.5977
▁associated	-9.5986
▁owned	-9.59888
▁claimed	-9.5994
ded	-9.59966
▁Em	-9.59975
▁believed	-9.59994
At	-9.59997
▁display	-9.60002
qua	-9.60101
▁artists	-9.60122
▁word	-9.60186
▁systems	-9.60208
Ch	-9.60231
▁marriage	-9.60236
▁suggest	-9.60238
bal	-9.60246
▁know	-9.60269
▁feature	-9.60324
▁particular	-9.60347
▁offered	-9.60363
▁officer	-9.60387
ram	-9.60473
▁remains	-9.60475
▁helped	-9.60513
▁comment	-9.60601
▁allow	-9.60607
▁Most	-9.60609
izing	-9.60707
▁Wal	-9.60752
head	-9.60884
▁("	-9.60907
▁Italy	-9.60949
▁Latin	-9.60949
▁stop	-9.61026
▁2018,	-9.61074
▁subsequently	-9.61138
39	-9.61172
▁tournament	-9.61184
í	-9.6122
▁Sc	-9.61224
▁build	-9.61255
pon	-9.61304
▁university	-9.61472
ano	-9.61496
unt	-9.61614
▁related	-9.61642
▁hours	-9.61719
▁musical	-9.61753
ich	-9.6179
▁Mark	-9.61795
uff	-9.61818
During	-9.61824
▁Old	-9.61875
Re	-9.61894
▁amount	-9.61944
rated	-9.61964
▁selected	-9.61973
▁today	-9.62004
ped	-9.62067
ala	-9.62104
▁majority	-9.62119
bor	-9.62141
▁firm	-9.62178
▁council	-9.62203
ency	-9.62212
▁producer	-9.62213
▁highest	-9.6225
▁award	-9.62261
▁card	-9.62309
▁policy	-9.62368
pu	-9.62377
▁longer	-9.62463
▁ra	-9.62478
▁leaving	-9.62533
▁2019	-9.6269
▁Town	-9.62712
▁1989	-9.62725
ye	-9.6273
▁parents	-9.62742
▁noted	-9.62751
▁graduated	-9.62886
▁sign	-9.62926
▁Mexico	-9.62991
▁Pla	-9.63006
ston	-9.63085
▁step	-9.63316
▁Ber	-9.63339
▁earned	-9.63381
▁Research	-9.63413
▁income	-9.63439
oon	-9.63457
▁screen	-9.63478
▁Sh	-9.63536
▁carried	-9.63592
86	-9.63653
▁runs	-9.6372
▁multi	-9.63794
yo	-9.63822
▁gl	-9.63879
ux	-9.63884
76	-9.63945
▁defend	-9.63957
▁channel	-9.63965
▁Many	-9.63984
round	-9.64188
▁failed	-9.64198
ata	-9.64208
21	-9.64245
▁Best	-9.64273
▁key	-9.64292
▁Navy	-9.64295
▁parts	-9.644
rop	-9.64479
▁trial	-9.6455
fu	-9.64564
▁perform	-9.64572
rupt	-9.64577
▁visit	-9.6469
▁annual	-9.64727
▁object	-9.64748
▁always	-9.64795
▁poor	-9.64832
▁medical	-9.64874
▁Arch	-9.64888
▁Er	-9.64906
▁label	-9.64911
nu	-9.64927
▁larger	-9.6495
▁Zealand	-9.6504
mann	-9.65102
▁Middle	-9.65119
▁nu	-9.6512
▁Ken	-9.65162
▁semi	-9.65239
▁demand	-9.65262
▁That	-9.65289
ray	-9.65383
wing	-9.65403
▁Ste	-9.65426
▁approximately	-9.65459
▁status	-9.65471
right	-9.65519
lie	-9.65576
▁Prince	-9.6564
▁partner	-9.65739
:_	-9.65744
▁Land	-9.65794
▁mm	-9.66011
66	-9.66104
▁potential	-9.6614
▁federal	-9.66206
▁claim	-9.66212
46	-9.66213
cho	-9.66233
▁double	-9.66259
▁60	-9.66267
▁Virginia	-9.66271
▁Ki	-9.66312
▁Wood	-9.66356
▁quarter	-9.66377
yard	-9.66379
▁Christ	-9.66396
▁told	-9.66423
▁civil	-9.66453
▁management	-9.66516
▁asked	-9.66607
▁leave	-9.66612
▁historical	-9.66617
▁energy	-9.66628
▁consider	-9.66734
78	-9.66746
▁Biography	-9.66773
▁changes	-9.66857
▁Jewish	-9.66867
▁want	-9.67015
▁acquired	-9.67046
vers	-9.67058
▁finally	-9.67075
▁programs	-9.67152
▁male	-9.67248
▁Women	-9.67275
▁floor	-9.67292
pped	-9.67312
▁Commission	-9.67327
▁prison	-9.67395
oo	-9.67436
teen	-9.67522
▁might	-9.67535
87	-9.67578
▁presented	-9.67625
▁reach	-9.67668
▁specific	-9.67676
▁source	-9.67695
▁Post	-9.67697
cker	-9.67802
▁goals	-9.67804
▁below	-9.6787
▁foreign	-9.67936
▁enough	-9.67995
▁wing	-9.68014
▁Dar	-9.68016
▁Pat	-9.68019
▁Following	-9.68045
▁mis	-9.68184
▁origin	-9.68187
ush	-9.68198
▁done	-9.6835
rus	-9.68371
ä	-9.68376
▁terms	-9.68382
ulation	-9.68389
▁weeks	-9.68392
rum	-9.68392
▁difficult	-9.68467
▁Times	-9.68476
▁vote	-9.68487
▁whole	-9.68584
mate	-9.68622
tim	-9.68708
▁Awards	-9.68721
ero	-9.68768
▁2,	-9.6879
az	-9.68822
18	-9.68946
ane	-9.68947
▁forest	-9.6904
tom	-9.69128
▁idea	-9.69179
57	-9.6922
▁arch	-9.69231
zo	-9.69244
rist	-9.69271
▁cultural	-9.69282
▁measure	-9.69284
▁1988	-9.69297
An	-9.69316
▁wanted	-9.69424
▁Irish	-9.69457
gal	-9.69551
▁Ter	-9.69553
▁represented	-9.69562
La	-9.69565
▁turned	-9.69576
&	-9.69596
▁characters	-9.69674
84	-9.69682
▁Northern	-9.69741
▁voice	-9.69801
pha	-9.69911
eng	-9.69913
▁concert	-9.69923
illa	-9.69935
5%	-9.70011
non	-9.70071
ement	-9.70095
▁shown	-9.7011
67	-9.7014
▁Stra	-9.70176
▁settlement	-9.7021
▁mostly	-9.7022
rn	-9.70229
▁arrived	-9.70249
▁assist	-9.70307
▁problems	-9.70358
▁professor	-9.70402
ini	-9.70451
work	-9.70522
▁proposed	-9.70531
▁saying	-9.70532
▁Chief	-9.70581
▁join	-9.7059
56	-9.70652
gin	-9.70694
▁Book	-9.70698
▁stone	-9.70724
▁If	-9.70817
▁1987	-9.70848
▁application	-9.7094
▁think	-9.70956
like	-9.70972
ery	-9.71045
rough	-9.71055
▁Van	-9.71071
77	-9.71071
°	-9.7115
▁master	-9.71153
▁Lee	-9.71197
▁Pennsylvania	-9.71202
▁Radio	-9.71239
▁star	-9.71355
▁machine	-9.71439
▁target	-9.71466
▁coast	-9.71494
▁Valley	-9.71522
▁br	-9.71633
79	-9.71663
▁promoted	-9.71675
▁minutes	-9.71695
▁Bill	-9.71731
▁Plan	-9.71763
▁society	-9.71786
82	-9.71812
▁Ac	-9.71856
lea	-9.71877
▁Kar	-9.7193
cast	-9.71939
mun	-9.71972
▁Wales	-9.72005
ably	-9.72019
▁detail	-9.72026
▁Fort	-9.72066
▁concern	-9.72067
net	-9.7209
▁crew	-9.72095
There	-9.72116
▁2006,	-9.72179
▁str	-9.72211
51	-9.72287
▁contains	-9.72338
▁western	-9.7236
▁despite	-9.72485
54	-9.72486
▁deep	-9.72516
▁chart	-9.72523
gh	-9.72553
ography	-9.72565
sha	-9.72567
99	-9.72569
▁individuals	-9.72594
▁oil	-9.72604
▁gun	-9.72631
▁department	-9.72695
▁refer	-9.72712
▁cho	-9.72736
▁latter	-9.72742
43	-9.72764
▁Florida	-9.72922
▁agreement	-9.7303
▁ver	-9.73058
▁mountain	-9.73146
▁remaining	-9.7326
▁actor	-9.73287
ski	-9.73301
set	-9.73412
ash	-9.7342
duc	-9.73436
▁Line	-9.73451
▁gr	-9.73545
▁variety	-9.7357
▁You	-9.73578
wan	-9.73583
▁films	-9.73603
▁flight	-9.73696
72	-9.73726
▁fellow	-9.73732
▁estate	-9.73763
▁middle	-9.7377
▁medal	-9.73934
bel	-9.73983
-20	-9.73995
68	-9.74016
▁publication	-9.74142
▁Mer	-9.74158
▁scene	-9.74181
ging	-9.74229
▁starting	-9.74274
east	-9.74293
▁press	-9.74316
▁gas	-9.74351
▁serving	-9.74389
Q	-9.74441
ington	-9.74448
▁1986	-9.74545
rry	-9.74576
ree	-9.74687
▁Empire	-9.74711
▁gene	-9.74764
▁heart	-9.74844
SA	-9.74856
dia	-9.74857
69	-9.74868
ough	-9.74901
tar	-9.74926
▁meaning	-9.7498
95	-9.74985
▁enter	-9.75019
▁platform	-9.75042
▁Blue	-9.75044
53	-9.75141
ked	-9.75163
▁(3	-9.75185
▁nearly	-9.75189
▁recent	-9.75205
strict	-9.75209
▁takes	-9.75251
▁Dun	-9.7527
amp	-9.75331
pic	-9.75341
▁Britain	-9.75355
stra	-9.75437
▁nearby	-9.75466
▁Of	-9.7547
74	-9.75483
ose	-9.75569
verse	-9.75589
Mo	-9.7563
sp	-9.75679
07	-9.75681
▁physical	-9.75706
▁youth	-9.75746
▁Cho	-9.75747
Ro	-9.75838
▁tradition	-9.75886
▁pick	-9.75889
▁continue	-9.75896
▁operated	-9.75904
);	-9.75958
▁Governor	-9.76098
58	-9.7617
09	-9.76214
83	-9.76272
▁mark	-9.76317
▁Records	-9.76366
▁Theatre	-9.76382
ó	-9.76435
▁sports	-9.76449
▁Val	-9.76462
For	-9.76521
ces	-9.76536
▁Out	-9.76558
eg	-9.76602
lain	-9.76603
08	-9.76611
▁grew	-9.76646
▁1930	-9.76674
▁technology	-9.76696
▁constructed	-9.76738
sure	-9.76854
▁Southern	-9.76857
▁limit	-9.76869
71	-9.76889
▁Fer	-9.76991
▁transferred	-9.77002
▁1984	-9.77037
ties	-9.77145
▁hold	-9.77147
▁judge	-9.77151
▁cases	-9.77161
▁Foundation	-9.77246
▁heavy	-9.77255
ographic	-9.77264
▁matches	-9.77297
▁Over	-9.77384
▁Civil	-9.77434
▁reason	-9.77493
cer	-9.77502
arch	-9.77513
▁issued	-9.77529
▁Bri	-9.77564
▁retired	-9.77587
duct	-9.77616
▁plans	-9.77691
▁responsible	-9.77695
bro	-9.777
▁box	-9.77758
place	-9.7778
▁factor	-9.77791
▁multiple	-9.77917
▁Development	-9.77917
▁referred	-9.77919
▁request	-9.77976
▁1985	-9.77994
▁Tour	-9.78007
▁Reg	-9.78016
board	-9.78043
ector	-9.78059
▁theory	-9.78098
▁Home	-9.78119
▁likely	-9.78196
▁computer	-9.78244
▁follow	-9.78288
▁editor	-9.78292
▁Frank	-9.78294
▁conditions	-9.78332
nie	-9.78357
▁foot	-9.78419
98	-9.78464
▁residents	-9.78466
▁nature	-9.78479
dis	-9.78494
▁walk	-9.78497
▁defeat	-9.7854
itor	-9.7857
▁i	-9.78578
▁Comp	-9.78659
▁Health	-9.78687
35	-9.78693
▁quickly	-9.78726
▁write	-9.7884
rian	-9.78849
59	-9.78904
24	-9.78924
▁whether	-9.7893
▁direction	-9.78946
sign	-9.79019
▁transport	-9.79028
wn	-9.79029
▁discovered	-9.79042
▁native	-9.79077
▁tu	-9.79109
vic	-9.79165
ute	-9.79224
tha	-9.79234
▁boat	-9.7927
▁letter	-9.79283
▁wood	-9.79319
▁Hy	-9.79347
▁county	-9.79353
hood	-9.79395
▁results	-9.794
▁beat	-9.79405
ave	-9.79438
▁friends	-9.79534
She	-9.79566
▁covered	-9.79587
▁singer	-9.79607
▁Nu	-9.79635
▁search	-9.79728
▁Bla	-9.79839
ae	-9.79853
▁appears	-9.79881
▁Spain	-9.79923
▁listed	-9.79939
97	-9.79951
?	-9.80047
▁spec	-9.80095
▁reflect	-9.80103
01	-9.8013
▁cell	-9.80133
▁Mil	-9.80198
05	-9.80227
▁era	-9.80337
+	-9.80346
▁syn	-9.80384
▁1940	-9.80409
▁treatment	-9.80434
▁Master	-9.80513
ident	-9.80519
▁winner	-9.80529
nor	-9.80533
73	-9.80575
▁Russia	-9.80608
▁Gold	-9.80678
▁method	-9.80688
bon	-9.80691
▁Pacific	-9.80696
▁#	-9.80713
▁escape	-9.8072
▁qua	-9.80762
▁Their	-9.8084
▁Football	-9.80939
–20	-9.80951
▁Bell	-9.81015
▁leg	-9.81088
▁Georgia	-9.81247
▁Os	-9.81261
▁lines	-9.81267
▁challenge	-9.81291
▁Ban	-9.81297
▁minor	-9.81337
bre	-9.81355
▁matter	-9.81384
▁Ye	-9.81385
▁wa	-9.81422
▁Station	-9.81466
del	-9.81506
06	-9.81533
AC	-9.8157
▁believe	-9.81597
▁prominent	-9.81598
▁situation	-9.81598
tric	-9.81676
▁Arab	-9.81827
tto	-9.81884
96	-9.82014
▁McC	-9.82037
▁managed	-9.82046
▁Boy	-9.82113
len	-9.82225
▁passenger	-9.8223
▁1982	-9.82234
45	-9.82264
itz	-9.82268
▁Mill	-9.82273
ax	-9.82326
▁website	-9.82338
▁Jack	-9.82407
▁Final	-9.8241
▁eye	-9.82536
▁dead	-9.82585
▁respect	-9.82608
▁mine	-9.82622
uck	-9.82626
▁da	-9.82701
▁directly	-9.82703
▁protest	-9.82731
▁$2	-9.82742
▁initial	-9.82747
▁soldiers	-9.82766
ale	-9.82806
char	-9.82832
▁1945	-9.82837
▁talk	-9.82894
.9	-9.82911
bird	-9.82946
▁mainly	-9.82984
▁Fin	-9.83011
▁Cro	-9.83032
▁Ram	-9.83064
▁appear	-9.83096
▁address	-9.831
▁Long	-9.83104
▁brand	-9.83116
nal	-9.83153
▁counter	-9.8324
▁III	-9.83276
▁adult	-9.83295
atory	-9.83301
graph	-9.83322
tta	-9.83379
▁Tor	-9.83395
Ba	-9.83418
ene	-9.83441
▁workers	-9.83461
▁product	-9.83462
ges	-9.8349
▁cu	-9.83535
▁maintain	-9.83563
mont	-9.83631
▁household	-9.83671
▁provides	-9.83671
23	-9.83712
85	-9.83763
▁drug	-9.83803
▁revealed	-9.83822
▁protect	-9.83921
▁problem	-9.83933
struct	-9.83933
aya	-9.83969
▁conflict	-9.84024
▁1920	-9.84038
▁Hospital	-9.8404
bil	-9.84048
▁houses	-9.84065
▁extended	-9.84119
▁reference	-9.84208
▁disc	-9.84267
▁develop	-9.84307
tive	-9.84343
▁1972	-9.84343
▁rule	-9.84345
gro	-9.84362
▁Both	-9.84369
▁Love	-9.84434
yer	-9.84487
cor	-9.84513
▁Israel	-9.84532
▁pressure	-9.84578
▁contact	-9.84593
.7	-9.84611
To	-9.84648
ato	-9.84682
.8	-9.84688
▁Sho	-9.8471
▁Assembly	-9.84766
▁cities	-9.84768
▁pair	-9.8477
▁content	-9.84776
▁Eastern	-9.84783
▁establish	-9.84784
rack	-9.84798
▁metres	-9.84818
ena	-9.84839
▁Camp	-9.84845
▁Creek	-9.84858
not	-9.84869
are	-9.84903
▁65	-9.84974
▁province	-9.85005
▁removed	-9.85015
93	-9.85031
▁parish	-9.85055
▁Republican	-9.85072
sum	-9.85088
lies	-9.85088
▁museum	-9.851
▁attention	-9.85134
▁Dis	-9.85144
awa	-9.85157
22	-9.85219
▁conduct	-9.85278
▁vocal	-9.85292
▁reform	-9.85295
▁percent	-9.85298
▁1983	-9.85343
▁Au	-9.85345
▁extensive	-9.85355
▁Trans	-9.85366
▁immediately	-9.85397
▁peace	-9.85523
▁ordered	-9.85628
▁conducted	-9.85654
▁bring	-9.85657
▁path	-9.85684
94	-9.85686
▁CD	-9.85687
▁moving	-9.85754
▁represent	-9.85761
▁products	-9.8578
▁Phil	-9.85786
▁damage	-9.85883
▁Young	-9.85899
▁hall	-9.8592
▁ships	-9.85932
48	-9.85936
▁purchased	-9.85938
▁Team	-9.85992
ators	-9.8606
rac	-9.86061
wer	-9.8607
ense	-9.86265
▁Rome	-9.86332
ising	-9.86345
▁overall	-9.86394
▁appearances	-9.86489
▁progress	-9.86495
▁Big	-9.86591
▁disease	-9.86607
▁growth	-9.86628
cycl	-9.86632
▁festival	-9.86688
▁metal	-9.86699
▁1976	-9.86727
▁administration	-9.86736
▁equal	-9.86764
tel	-9.86782
law	-9.86827
ili	-9.86851
▁agreed	-9.86872
▁minister	-9.86953
class	-9.8698
▁blue	-9.86981
▁Tro	-9.86995
▁needed	-9.86998
put	-9.86999
▁am	-9.87
▁Free	-9.8706
▁academic	-9.87077
▁officers	-9.8714
▁Will	-9.87147
▁Show	-9.8715
state	-9.87189
▁rank	-9.87193
▁birth	-9.87226
▁Order	-9.8727
▁guest	-9.87286
▁assistant	-9.87301
▁fast	-9.87327
cade	-9.8736
▁levels	-9.87369
▁destroyed	-9.87374
▁spread	-9.87384
▁Francisco	-9.87385
▁fund	-9.87562
hn	-9.87574
▁Water	-9.87592
▁activity	-9.87639
poli	-9.87675
▁spring	-9.87684
▁elements	-9.87685
▁1979	-9.87716
▁tower	-9.87721
own	-9.8774
▁kind	-9.87742
mu	-9.87752
▁kill	-9.87793
▁Gre	-9.87847
top	-9.87885
ada	-9.87958
▁spoke	-9.88004
▁Mountain	-9.88007
▁Despite	-9.88007
▁trip	-9.88072
▁lives	-9.88105
▁device	-9.8814
04	-9.88144
▁eastern	-9.88174
▁champion	-9.88216
▁avoid	-9.88255
Th	-9.88346
▁Boston	-9.88378
▁price	-9.88553
▁1974	-9.88569
▁facilities	-9.88597
▁signal	-9.88612
▁yet	-9.88626
aka	-9.8864
▁1968	-9.88651
92	-9.88744
▁basis	-9.88744
▁—	-9.88761
▁suffered	-9.88822
▁Game	-9.88823
▁efforts	-9.8885
▁distance	-9.88863
vil	-9.88996
och	-9.89025
▁audience	-9.89077
kar	-9.89114
ically	-9.89121
▁More	-9.8916
cit	-9.89173
▁Carolina	-9.89184
run	-9.89191
▁news	-9.89207
$	-9.8922
▁environment	-9.89236
ace	-9.89264
▁recover	-9.89323
▁1971	-9.89345
▁200	-9.89347
gent	-9.89348
▁executive	-9.89375
▁campus	-9.89415
▁Coast	-9.89433
west	-9.89506
Ar	-9.89512
MA	-9.89551
88	-9.89574
▁Office	-9.89576
▁Luc	-9.89602
▁window	-9.89613
▁BC	-9.8967
▁highly	-9.89677
RA	-9.89683
▁ancient	-9.89701
28	-9.89715
▁operate	-9.89778
CA	-9.89804
▁planned	-9.89808
NA	-9.89814
rin	-9.89832
▁Centre	-9.89842
27	-9.89854
ient	-9.89869
▁accept	-9.89871
▁uses	-9.89903
▁intended	-9.9005
▁here	-9.90068
▁1981	-9.90091
▁People	-9.90159
▁Fla	-9.90163
▁Spe	-9.9027
American	-9.90282
worth	-9.90286
▁traffic	-9.90293
▁reserve	-9.9032
dor	-9.9033
▁Muslim	-9.90347
room	-9.90354
dom	-9.90378
▁composed	-9.90411
▁positive	-9.90444
tory	-9.90472
▁Secretary	-9.90491
▁promotion	-9.90494
under	-9.90533
water	-9.90536
▁Dutch	-9.90617
ware	-9.90666
▁Background	-9.90798
▁BBC	-9.90805
91	-9.90846
cial	-9.90847
more	-9.90883
▁draw	-9.90902
▁Bel	-9.90912
Co	-9.90925
▁sexual	-9.90943
▁spot	-9.90944
ama	-9.90957
▁Johnson	-9.91013
▁sail	-9.91027
vision	-9.91067
▁Albert	-9.91068
▁threat	-9.9113
▁agent	-9.91153
▁aim	-9.91156
br	-9.91165
▁gain	-9.91167
▁Del	-9.91192
▁security	-9.91202
▁1975	-9.91215
▁Cross	-9.91224
▁participated	-9.91224
▁Conference	-9.91269
▁hundred	-9.91303
▁teaching	-9.9136
▁probably	-9.91371
▁mass	-9.91419
▁officially	-9.91434
oph	-9.91443
▁smaller	-9.91457
▁capacity	-9.9149
▁crime	-9.91519
▁2005,	-9.91559
án	-9.91586
▁bra	-9.9159
▁Bor	-9.91617
▁conference	-9.91659
▁permanent	-9.91728
▁Mont	-9.91741
▁remain	-9.91765
89	-9.91772
▁Scotland	-9.91778
▁fra	-9.91826
▁Not	-9.91833
▁fell	-9.91844
hor	-9.9186
▁slow	-9.91938
ort	-9.91969
▁cat	-9.92002
▁committee	-9.92017
32	-9.92064
▁makes	-9.92071
▁80	-9.92103
cip	-9.92137
▁1977	-9.92142
ón	-9.92192
▁projects	-9.9221
▁quality	-9.92222
▁Ran	-9.92239
▁ability	-9.9224
▁1978	-9.92279
His	-9.92324
▁primarily	-9.92324
▁occasion	-9.92335
▁inside	-9.9234
gy	-9.92347
▁Earth	-9.92361
▁format	-9.92407
▁programme	-9.92502
37	-9.92518
26	-9.92562
▁1969	-9.92654
cut	-9.92679
St	-9.92736
▁stay	-9.92741
▁giving	-9.92754
▁effects	-9.9277
▁Ol	-9.92788
▁scholar	-9.92802
rio	-9.92807
▁branch	-9.92886
acy	-9.92891
▁dark	-9.92891
▁Fre	-9.92944
▁Corps	-9.92946
dan	-9.93004
▁secret	-9.93042
ith	-9.93062
▁print	-9.93085
▁grand	-9.93089
matic	-9.93116
rap	-9.93156
▁alongside	-9.93163
▁Plot	-9.93186
▁green	-9.9322
▁stations	-9.93376
▁wall	-9.93419
▁Open	-9.93581
▁pop	-9.93584
▁renamed	-9.93616
Le	-9.93643
▁solo	-9.93687
▁doctor	-9.93709
ugh	-9.9371
oy	-9.93742
▁System	-9.93772
▁Ze	-9.93913
▁Jean	-9.93979
▁blood	-9.93998
▁portion	-9.94039
03	-9.94078
ob	-9.94092
▁stories	-9.9416
rich	-9.94161
▁Democratic	-9.94168
38	-9.94179
▁risk	-9.94188
▁fish	-9.94217
stein	-9.94221
▁forms	-9.94248
▁upper	-9.94252
▁1967	-9.94281
▁effort	-9.94289
▁Mid	-9.94351
▁link	-9.94384
▁housing	-9.94399
olog	-9.94477
point	-9.94479
This	-9.9449
▁code	-9.94499
▁Four	-9.94518
▁Yo	-9.94519
▁largely	-9.94559
aging	-9.94635
▁volume	-9.94695
▁felt	-9.94711
ban	-9.94752
▁connection	-9.94764
▁launch	-9.94788
bury	-9.94806
mat	-9.94812
PA	-9.94818
▁bill	-9.94863
▁Bridge	-9.94908
▁difference	-9.94916
▁captured	-9.9494
▁transfer	-9.94982
pect	-9.94985
▁households	-9.95005
▁commission	-9.95017
▁Berlin	-9.95041
▁accepted	-9.95121
▁45	-9.95144
lle	-9.95171
ā	-9.95187
▁dedicated	-9.9524
▁Is	-9.95287
▁peak	-9.95319
▁Gal	-9.95349
▁gained	-9.95361
▁1973	-9.95366
▁wear	-9.95371
eb	-9.95384
▁slave	-9.954
itu	-9.95454
▁Scott	-9.95488
try	-9.95495
▁exchange	-9.95505
▁Arm	-9.95572
nam	-9.95732
pping	-9.95745
▁recently	-9.95796
urg	-9.95864
▁tend	-9.95889
gram	-9.95899
▁fine	-9.95945
▁gu	-9.95953
▁Jones	-9.95989
▁Pen	-9.96001
▁consists	-9.96029
vid	-9.96053
rid	-9.96193
▁lot	-9.96252
▁critical	-9.96318
dies	-9.96324
▁draft	-9.96339
▁exhibition	-9.96355
▁Ten	-9.96424
▁equipment	-9.96445
▁granted	-9.96447
bli	-9.96465
▁impact	-9.96469
▁Williams	-9.96492
31	-9.96517
▁says	-9.9652
▁..	-9.96551
▁seek	-9.96552
▁door	-9.96641
▁association	-9.96659
pan	-9.96662
▁Prime	-9.96706
▁Cle	-9.96732
IS	-9.96743
gene	-9.96837
▁declared	-9.96843
▁females	-9.96871
▁35	-9.96943
▁adopted	-9.96945
▁rare	-9.97036
bul	-9.97038
shed	-9.97067
▁depict	-9.97269
▁benefit	-9.97322
▁presence	-9.97345
ural	-9.97375
af	-9.97403
▁coming	-9.9742
▁surrounding	-9.97448
▁wind	-9.97536
▁article	-9.9755
▁Wil	-9.9767
ira	-9.97735
sol	-9.97737
ati	-9.97802
▁fifth	-9.97863
▁watch	-9.97882
▁union	-9.97932
ttle	-9.97939
▁Ger	-9.97942
▁census	-9.97989
▁serious	-9.9799
▁Senate	-9.98057
▁finish	-9.98174
▁pilot	-9.98244
▁strike	-9.98268
▁save	-9.98282
▁assigned	-9.98283
▁Son	-9.98362
▁creation	-9.98392
▁mile	-9.98461
▁Jan	-9.98473
▁occur	-9.98507
▁buried	-9.98516
▁Ham	-9.98591
▁Ci	-9.98605
▁thousand	-9.98716
▁widely	-9.98722
▁therefore	-9.98771
with	-9.98934
▁joint	-9.98973
▁mu	-9.98987
62	-9.98991
▁Pol	-9.99035
▁Tha	-9.99055
▁Cur	-9.99074
36	-9.99129
▁regional	-9.99133
▁leadership	-9.99135
29	-9.99173
▁representative	-9.99185
thi	-9.99188
▁Operation	-9.99258
meter	-9.99258
▁organized	-9.99261
▁words	-9.99378
▁micro	-9.994
▁knowledge	-9.99466
▁Federal	-9.99467
▁Rose	-9.99476
▁Sydney	-9.99485
Li	-9.99501
▁Tim	-9.99539
▁acting	-9.99557
ua	-9.99573
tus	-9.99585
press	-9.99636
▁resulted	-9.99664
▁1944	-9.99668
▁Inc	-9.99745
▁girl	-9.99759
▁Ly	-9.99818
▁FC	-9.99851
▁Columbia	-9.99853
▁Program	-9.99893
▁big	-9.9993
▁Also	-9.99968
▁Oxford	-10
ball	-10.0005
oid	-10.0007
▁governor	-10.0007
▁Bishop	-10.0007
▁Spring	-10.0019
ans	-10.002
▁Tal	-10.0024
▁3,	-10.0025
▁forward	-10.0027
BA	-10.0029
▁commander	-10.0032
▁loan	-10.0032
▁par	-10.0034
▁painting	-10.0037
teg	-10.0038
iff	-10.0043
ison	-10.0053
▁extra	-10.0056
▁comes	-10.0067
▁ill	-10.0068
▁Tan	-10.0069
▁connect	-10.007
Al	-10.007
34	-10.0071
ille	-10.0078
▁Im	-10.008
anda	-10.008
zy	-10.0081
dar	-10.0083
sses	-10.0085
▁expected	-10.0089
.)	-10.0092
via	-10.0092
▁taught	-10.0097
▁promote	-10.0099
ines	-10.0101
▁paid	-10.0102
▁70	-10.0104
▁rival	-10.0106
▁contest	-10.0108
▁Library	-10.011
▁split	-10.011
▁leaders	-10.011
33	-10.0115
▁Avenue	-10.0115
ste	-10.0117
pul	-10.0119
49	-10.0119
lly	-10.0119
▁Mel	-10.0122
arm	-10.0125
▁kept	-10.0127
▁Major	-10.013
▁Asia	-10.0135
▁mini	-10.0138
▁operating	-10.0141
lem	-10.0146
▁titled	-10.0147
▁actually	-10.0155
▁Route	-10.0159
▁chi	-10.0161
dri	-10.0165
which	-10.0172
▁typically	-10.0172
▁showed	-10.0172
▁Char	-10.0178
fre	-10.0179
▁temple	-10.0179
hel	-10.0181
▁Emperor	-10.0186
yan	-10.0189
▁occurred	-10.019
▁credit	-10.0193
▁Championships	-10.0195
▁suggested	-10.0195
▁Ohio	-10.0202
▁Another	-10.0202
▁alone	-10.0207
▁Night	-10.0208
▁formation	-10.0208
▁notable	-10.0208
44	-10.021
▁newly	-10.021
▁expanded	-10.021
▁1964	-10.0211
▁records	-10.0217
▁prop	-10.0219
▁tried	-10.0223
▁mentioned	-10.0223
tress	-10.0228
▁sal	-10.0231
▁hope	-10.0231
▁Carl	-10.0236
▁library	-10.0237
▁Main	-10.0239
Pa	-10.024
ope	-10.0241
▁growing	-10.0244
▁pattern	-10.0245
mir	-10.0257
▁reduced	-10.0258
▁estimated	-10.0269
▁founder	-10.0275
pet	-10.0281
▁Justice	-10.0282
▁captain	-10.0285
reg	-10.0285
02	-10.0286
▁incident	-10.0289
▁ve	-10.0293
▁1965	-10.0298
ique	-10.03
▁confirmed	-10.0301
▁drive	-10.0301
▁Vol	-10.0304
▁2019,	-10.0309
fra	-10.0311
63	-10.0311
▁providing	-10.0313
▁compared	-10.0317
▁Mount	-10.032
its	-10.032
▁bad	-10.032
▁exhibit	-10.0325
▁communities	-10.0327
81	-10.033
▁leaves	-10.0334
▁broad	-10.0336
▁rise	-10.0337
▁Geography	-10.0343
▁1966	-10.0345
61	-10.0345
ern	-10.0351
eu	-10.0354
vy	-10.0359
bol	-10.0359
▁ban	-10.0363
▁billion	-10.0364
▁shape	-10.0366
lig	-10.0366
9%	-10.0368
position	-10.0375
▁(4	-10.0376
cia	-10.0377
tti	-10.0379
▁divided	-10.0379
▁treat	-10.0386
▁offer	-10.0389
▁mill	-10.039
▁del	-10.0391
▁Elizabeth	-10.0394
▁politician	-10.0394
▁broke	-10.04
▁Sand	-10.0401
count	-10.0402
▁unique	-10.0402
▁offers	-10.0407
bur	-10.0407
CC	-10.0413
lock	-10.0417
▁Sk	-10.0423
▁weight	-10.0425
▁Bat	-10.0428
▁pitch	-10.0429
▁Mus	-10.0436
▁discuss	-10.0444
▁setting	-10.045
▁greater	-10.0453
▁digital	-10.0455
met	-10.0455
pression	-10.0463
52	-10.0464
▁grade	-10.0464
When	-10.0466
▁App	-10.0478
▁symbol	-10.048
▁effective	-10.0481
▁Top	-10.049
▁guitar	-10.0492
▁Joe	-10.0492
ida	-10.0496
▁Sol	-10.0496
▁favor	-10.0501
▁advance	-10.0502
▁Andrew	-10.0502
▁option	-10.0505
nny	-10.0508
▁supply	-10.0512
▁Kan	-10.0512
▁hotel	-10.0518
–2	-10.0528
%)	-10.0534
▁continues	-10.0535
era	-10.0536
▁morning	-10.0537
▁journal	-10.0553
ender	-10.0555
▁obtained	-10.0556
▁Jackson	-10.0557
▁Gen	-10.0561
heim	-10.0562
▁session	-10.0563
▁Santa	-10.0567
ella	-10.0568
life	-10.057
tract	-10.0571
var	-10.0574
▁Asian	-10.0575
pose	-10.0581
key	-10.0586
▁Adam	-10.0587
AR	-10.0595
▁Professor	-10.0599
▁condition	-10.0602
▁Bon	-10.0606
▁Alexander	-10.0606
▁Series	-10.0606
zar	-10.061
▁Little	-10.0612
get	-10.0614
▁guard	-10.0619
▁Jersey	-10.0619
nan	-10.0621
ock	-10.0622
▁median	-10.0623
▁contribution	-10.0626
▁Far	-10.0626
▁Good	-10.063
▁critic	-10.0632
▁combined	-10.0634
▁territory	-10.0635
▁figure	-10.0641
▁page	-10.0643
▁Duke	-10.0643
eo	-10.0644
▁generation	-10.0645
▁true	-10.0647
De	-10.0654
▁Light	-10.0654
isation	-10.066
▁Death	-10.0661
▁resulting	-10.0664
▁arrested	-10.0668
▁phase	-10.0669
▁90	-10.0671
▁Illinois	-10.0672
▁task	-10.0681
▁Maria	-10.0682
▁names	-10.0683
".	-10.0683
▁wave	-10.0685
▁cannot	-10.0688
▁featuring	-10.0692
▁destroy	-10.0697
but	-10.0701
▁accident	-10.0702
die	-10.0704
▁poet	-10.0708
rig	-10.0716
▁principal	-10.072
Con	-10.0721
▁vessel	-10.0722
cation	-10.0728
▁historian	-10.0738
▁Song	-10.0738
▁suit	-10.0742
ien	-10.0748
▁Corporation	-10.075
▁identified	-10.0752
▁tracks	-10.0755
▁architect	-10.0756
▁custom	-10.0759
▁Games	-10.0763
▁investigation	-10.0764
▁Max	-10.0764
▁literature	-10.0768
41	-10.0771
mond	-10.0771
▁simple	-10.0774
▁burn	-10.0776
▁Castle	-10.0781
▁don	-10.0783
▁bought	-10.0787
nom	-10.0787
▁online	-10.0798
▁refused	-10.08
gate	-10.0809
▁/	-10.0811
cht	-10.0811
▁Cri	-10.082
ologist	-10.0824
▁shop	-10.0825
è	-10.0828
dale	-10.0832
▁driver	-10.0834
▁industrial	-10.0836
▁elections	-10.0836
▁younger	-10.0838
▁Supreme	-10.0842
▁picture	-10.0842
▁grant	-10.0846
▁foundation	-10.085
▁Sto	-10.085
ici	-10.0853
▁Michigan	-10.0854
▁roof	-10.0854
▁Ash	-10.0854
mination	-10.0858
activ	-10.086
▁cells	-10.086
cro	-10.0863
▁engineer	-10.0865
▁royal	-10.0866
▁Jr	-10.0871
▁Field	-10.0878
▁Rob	-10.0882
▁Revolution	-10.0883
sey	-10.0883
▁Three	-10.0883
▁Power	-10.0887
▁Scottish	-10.0888
olf	-10.0891
▁communication	-10.0898
▁yards	-10.0905
oli	-10.0905
▁instrument	-10.091
–18	-10.0921
▁sources	-10.0934
▁Op	-10.0938
▁van	-10.094
▁respectively	-10.0941
▁USA	-10.0942
LA	-10.0946
▁Born	-10.095
▁completely	-10.095
▁sector	-10.0951
▁temperature	-10.0953
▁Pakistan	-10.0955
hl	-10.0955
▁corner	-10.0956
▁sense	-10.0961
▁Kong	-10.0964
▁column	-10.0965
▁flag	-10.0967
▁Family	-10.0969
▁Gro	-10.097
rick	-10.0975
▁cal	-10.0975
42	-10.0978
tten	-10.0978
▁Polish	-10.0979
▁2004,	-10.0979
bri	-10.098
FC	-10.0984
▁something	-10.0984
▁Ministry	-10.0987
▁settled	-10.0987
▁Play	-10.0993
▁1963	-10.0993
▁theatre	-10.0995
▁1962	-10.1
▁1942	-10.1001
▁Sur	-10.1002
▁edge	-10.1003
▁seem	-10.1012
▁necessary	-10.1016
▁rear	-10.1016
▁Member	-10.1016
▁losing	-10.1018
agon	-10.1021
▁twenty	-10.1024
cri	-10.1026
▁succeeded	-10.103
▁send	-10.1032
▁visited	-10.1033
▁winter	-10.1034
nel	-10.1039
▁Gene	-10.104
▁1948	-10.1041
▁Part	-10.1041
kins	-10.1053
▁facility	-10.1055
▁sponsor	-10.1055
▁defense	-10.1057
kov	-10.106
▁types	-10.1061
door	-10.1061
▁4,	-10.1066
▁2000,	-10.1068
▁Captain	-10.1068
▁injury	-10.1069
▁allowing	-10.107
EC	-10.1071
▁silver	-10.1071
▁acres	-10.1073
ific	-10.1076
▁Cy	-10.108
▁survey	-10.1084
▁applied	-10.1088
▁fl	-10.1092
▁severe	-10.1094
▁races	-10.1094
rant	-10.1095
hol	-10.1099
▁wild	-10.11
▁say	-10.1105
▁goes	-10.1107
▁table	-10.1108
cell	-10.1111
▁opposition	-10.1113
▁repeat	-10.1116
▁basic	-10.1123
▁clo	-10.1126
▁tank	-10.1128
▁poem	-10.1141
▁statement	-10.1142
▁hill	-10.1143
▁Sports	-10.1144
ei	-10.1145
▁Mat	-10.1147
▁Business	-10.1148
▁Hunt	-10.1148
mus	-10.1155
cco	-10.1155
▁claims	-10.1156
▁32	-10.1159
▁epi	-10.1159
▁Fri	-10.1162
▁parties	-10.1167
dal	-10.117
▁Ann	-10.1171
▁collect	-10.1175
▁speak	-10.1175
▁sales	-10.118
▁auto	-10.1188
▁fighting	-10.119
ula	-10.1191
▁drama	-10.1193
▁funding	-10.1194
▁1946	-10.1198
▁stock	-10.12
▁hunt	-10.1206
▁recognized	-10.1208
▁Ray	-10.121
▁scientific	-10.1212
ridge	-10.1214
▁Pop	-10.1215
▁‘	-10.1217
temp	-10.1222
Be	-10.1223
maker	-10.1224
▁fully	-10.1225
▁Production	-10.1226
▁classes	-10.1226
gle	-10.1227
▁strip	-10.123
From	-10.1235
▁pun	-10.1237
onic	-10.1237
-2	-10.124
▁bear	-10.1243
▁attempted	-10.1243
eller	-10.1248
▁graduate	-10.1251
▁Ven	-10.1255
▁1961	-10.1256
▁1943	-10.1261
ister	-10.1263
roll	-10.1264
▁things	-10.1265
tens	-10.1265
▁trail	-10.1269
read	-10.1271
▁tells	-10.1274
▁Police	-10.1276
▁Human	-10.1279
▁contemporary	-10.1281
▁urban	-10.1281
pher	-10.1282
▁entitled	-10.1284
▁Journal	-10.1285
▁connected	-10.1287
▁Regiment	-10.1287
ott	-10.1288
▁Cast	-10.129
▁1939	-10.1301
▁Social	-10.1302
pot	-10.1307
▁Sub	-10.1309
avi	-10.131
▁priest	-10.1313
▁twice	-10.1319
▁mode	-10.1319
▁Hong	-10.1322
▁officials	-10.1322
▁Summer	-10.1323
kan	-10.1326
ulated	-10.1328
▁500	-10.133
▁politics	-10.1334
zer	-10.1335
▁proceed	-10.1336
▁employed	-10.1342
▁photo	-10.1345
▁Tur	-10.1346
▁Media	-10.1346
▁religion	-10.1348
▁Up	-10.1352
▁Special	-10.1355
▁stream	-10.1368
emp	-10.1369
▁colon	-10.1372
▁authorities	-10.1373
▁arms	-10.1379
range	-10.1379
▁colour	-10.1379
▁scale	-10.1381
We	-10.1383
▁distribution	-10.1383
▁castle	-10.1384
▁Philadelphia	-10.1391
▁begins	-10.1395
▁us	-10.1397
cat	-10.1399
▁garden	-10.1404
▁map	-10.1406
▁Each	-10.141
▁Time	-10.1412
▁inspired	-10.1412
▁learn	-10.1419
▁speech	-10.1423
▁organizations	-10.1431
IA	-10.1437
▁rating	-10.1438
scription	-10.1441
Un	-10.1443
▁secondary	-10.1446
▁scoring	-10.1446
tte	-10.1446
▁Ob	-10.1449
ify	-10.1451
▁fuel	-10.1451
▁Hor	-10.1458
▁Vis	-10.1458
▁Br	-10.1461
▁Press	-10.1461
▁(17	-10.1469
▁piece	-10.1471
▁plays	-10.1474
IC	-10.1475
š	-10.1476
▁Dam	-10.1476
▁height	-10.1476
▁victim	-10.1478
▁tree	-10.1484
ode	-10.1484
▁grow	-10.1485
mission	-10.1491
▁lake	-10.1491
▁contain	-10.1493
▁1941	-10.1495
▁begin	-10.1497
▁chairman	-10.1498
▁returning	-10.1503
▁Daniel	-10.1505
▁fair	-10.1519
▁Massachusetts	-10.1519
▁Chan	-10.1522
Bo	-10.1532
▁Cat	-10.1534
star	-10.1535
rel	-10.1536
▁count	-10.1536
ivity	-10.1538
▁frequently	-10.1538
▁cancer	-10.1539
Ha	-10.1543
▁correspond	-10.1545
Mar	-10.1548
▁sex	-10.1549
▁attacked	-10.1549
most	-10.155
▁hosted	-10.1554
▁Clo	-10.1556
cept	-10.1556
No	-10.1561
▁Cra	-10.1563
style	-10.1563
▁journalist	-10.1564
▁VI	-10.1578
ré	-10.158
cap	-10.1582
▁Victoria	-10.1585
▁rural	-10.159
▁fer	-10.1593
▁tell	-10.1593
▁Shar	-10.1594
▁existing	-10.1595
[	-10.1596
borough	-10.1601
▁safety	-10.1609
▁buy	-10.1609
▁your	-10.1611
▁appeal	-10.1614
▁attend	-10.1617
▁rail	-10.1619
table	-10.1622
▁creating	-10.1623
▁failure	-10.1625
oma	-10.1625
▁extend	-10.1629
ora	-10.163
▁chance	-10.1635
til	-10.1641
▁performances	-10.1641
64	-10.1644
iya	-10.1656
▁Philip	-10.1657
Man	-10.1657
▁Military	-10.1658
65	-10.1661
▁Count	-10.1667
▁Sunday	-10.1667
▁Toronto	-10.1668
▁bat	-10.1669
▁analysis	-10.1671
▁unable	-10.1679
▁1947	-10.168
▁Gri	-10.1681
▁Its	-10.1686
▁Eu	-10.169
▁Para	-10.169
▁poly	-10.1692
▁chosen	-10.1695
lect	-10.1695
00,000	-10.17
▁Anti	-10.1702
▁Tru	-10.1704
ime	-10.1716
▁Philippine	-10.1717
bus	-10.1718
una	-10.1722
▁iron	-10.1725
▁expansion	-10.173
▁aid	-10.1731
mmer	-10.1731
▁glass	-10.1732
▁feed	-10.1734
lation	-10.1736
tting	-10.1738
▁males	-10.1743
▁protection	-10.1752
▁tele	-10.1759
▁marked	-10.1761
down	-10.1761
▁Wild	-10.1766
▁numbers	-10.1775
eries	-10.1779
▁global	-10.1783
hip	-10.1787
▁enemy	-10.1789
astic	-10.1792
ctic	-10.1793
▁Jim	-10.1795
▁municipality	-10.18
200	-10.1801
▁rain	-10.1801
ado	-10.1802
▁flood	-10.1803
▁Iraq	-10.1805
▁allows	-10.1808
▁von	-10.1811
▁density	-10.1814
▁animals	-10.1818
▁holding	-10.1818
▁opposed	-10.1821
▁authority	-10.1823
▁Ali	-10.1823
▁experiment	-10.1828
▁narrow	-10.1829
vert	-10.183
▁Cam	-10.1836
▁flo	-10.1838
▁Design	-10.1841
▁et	-10.1845
▁background	-10.1849
▁relatively	-10.1849
▁roll	-10.186
▁motor	-10.1869
▁simply	-10.1873
eva	-10.1874
▁Week	-10.1875
known	-10.1877
▁citizens	-10.1879
▁Band	-10.188
▁Lin	-10.1882
▁struggle	-10.1882
lov	-10.1883
qual	-10.1886
▁composition	-10.1889
chen	-10.1891
▁Ball	-10.1897
▁deliver	-10.19
▁fans	-10.192
▁Korea	-10.1922
power	-10.1922
▁etc	-10.1923
▁plot	-10.1927
▁Network	-10.1927
▁Francis	-10.1929
SC	-10.193
▁Wilson	-10.1938
▁Class	-10.1938
▁Community	-10.1938
▁respond	-10.1938
▁Description	-10.1941
▁sand	-10.1943
mag	-10.1944
▁models	-10.1948
▁Stephen	-10.1949
AA	-10.1954
▁Stone	-10.1958
▁alternative	-10.1963
▁ju	-10.1964
▁gather	-10.1965
▁Var	-10.1968
▁moment	-10.1969
▁memory	-10.197
AM	-10.1977
▁trees	-10.1989
▁bio	-10.1989
▁becomes	-10.1992
▁except	-10.1992
▁positions	-10.1994
▁reveal	-10.1994
▁Project	-10.1997
mel	-10.1999
▁mixed	-10.1999
▁Lar	-10.2
▁occupied	-10.2011
▁retirement	-10.2014
▁entrance	-10.2015
▁Sin	-10.2016
▁increasing	-10.2023
▁ring	-10.2023
▁switch	-10.2027
▁script	-10.203
▁votes	-10.2034
▁hair	-10.2036
▁sun	-10.204
▁plants	-10.204
▁relations	-10.2041
bla	-10.2045
▁architecture	-10.2045
▁Age	-10.2051
▁Vietnam	-10.2051
▁technical	-10.2051
▁advanced	-10.2051
▁Lady	-10.2053
▁1959	-10.2054
▁dropped	-10.2054
AT	-10.2057
▁choice	-10.206
▁contributed	-10.2065
▁Fox	-10.2065
list	-10.2066
▁commonly	-10.2068
hin	-10.2072
▁component	-10.2074
▁Premier	-10.2074
▁affair	-10.2076
▁Bir	-10.2076
▁comic	-10.2077
where	-10.2085
▁Girl	-10.2086
▁plea	-10.209
▁Even	-10.2091
wen	-10.2092
▁Clark	-10.2092
▁Tar	-10.2093
nar	-10.2097
▁dog	-10.21
ancy	-10.21
▁subsequent	-10.2114
stead	-10.2116
▁recruit	-10.2126
▁descend	-10.2126
▁flat	-10.2126
▁Ren	-10.2129
▁gives	-10.2129
▁portray	-10.213
▁materials	-10.2132
▁36	-10.2132
mid	-10.2133
▁cm	-10.2134
▁1958	-10.2136
▁cars	-10.2141
RC	-10.2144
▁detect	-10.2152
▁sought	-10.2153
tribute	-10.2154
▁chair	-10.2157
▁headquarters	-10.216
▁Mike	-10.2161
▁pain	-10.2163
▁1956	-10.2166
rov	-10.2167
▁Cel	-10.2176
▁End	-10.2177
▁receiving	-10.2179
print	-10.218
▁nominated	-10.2186
▁transform	-10.2186
plo	-10.2187
▁Marine	-10.2195
ona	-10.2195
▁regiment	-10.2203
▁2003,	-10.2204
ibility	-10.2205
▁$3	-10.2207
,500	-10.2224
▁organisation	-10.2226
▁Earl	-10.2226
▁Point	-10.2228
▁reduce	-10.223
▁Nations	-10.2232
flu	-10.2233
▁Ana	-10.2234
ky	-10.2234
▁license	-10.2236
zu	-10.2237
▁attacks	-10.2239
▁meant	-10.2242
▁Gla	-10.2243
By	-10.2246
▁fear	-10.2247
▁reports	-10.2248
▁Cambridge	-10.2253
▁trains	-10.2257
gam	-10.2259
hop	-10.2259
weight	-10.2265
▁achieved	-10.2272
▁Fair	-10.2273
▁learning	-10.2277
▁sell	-10.2284
▁principle	-10.229
▁Guard	-10.229
▁powerful	-10.2292
uri	-10.2299
▁approved	-10.2301
▁News	-10.2304
fri	-10.2313
▁explain	-10.2317
▁basketball	-10.2331
▁straight	-10.2332
blo	-10.2333
▁mind	-10.2335
▁rules	-10.2338
▁resources	-10.2338
▁daily	-10.2341
wick	-10.2346
▁criminal	-10.235
▁shift	-10.2353
▁Head	-10.2356
ika	-10.2358
ø	-10.236
▁Pope	-10.236
▁Because	-10.2368
ened	-10.2368
▁Champion	-10.2369
▁Ker	-10.2373
▁performing	-10.2373
▁Poland	-10.2376
▁behavior	-10.2378
▁wheel	-10.2378
mount	-10.2393
▁log	-10.2395
▁Live	-10.2398
▁establishment	-10.2399
ught	-10.24
▁shortly	-10.2404
Ja	-10.2405
▁Bob	-10.2409
▁advantage	-10.2416
▁fought	-10.2419
▁protein	-10.2421
▁software	-10.2421
▁composer	-10.2423
▁sport	-10.2426
▁brothers	-10.243
▁fiction	-10.2432
▁squad	-10.2433
▁residence	-10.2436
posed	-10.2436
▁seasons	-10.2437
▁Fall	-10.244
dict	-10.2443
▁push	-10.2448
▁message	-10.2456
▁Brad	-10.2459
▁fleet	-10.2463
▁Khan	-10.2472
pel	-10.2477
tend	-10.248
▁frame	-10.248
▁vehicle	-10.2485
▁Bull	-10.2486
▁Forest	-10.2486
▁compete	-10.2488
▁Highway	-10.2497
▁guns	-10.2497
book	-10.2498
According	-10.2499
▁Before	-10.25
▁domestic	-10.2506
▁dress	-10.2514
rog	-10.2515
′	-10.2524
tsu	-10.2525
▁reviews	-10.2526
arian	-10.2526
▁1957	-10.2528
▁figures	-10.2529
▁affect	-10.2531
night	-10.2532
▁let	-10.2534
▁debate	-10.2535
ima	-10.2547
▁Airport	-10.2554
▁alleged	-10.2556
▁der	-10.2558
▁purchase	-10.2564
▁feel	-10.2567
▁beyond	-10.2567
▁decide	-10.257
▁ski	-10.257
▁Area	-10.2573
▁awards	-10.2576
▁Among	-10.2585
▁Fra	-10.2585
▁try	-10.259
▁Province	-10.2591
▁1949	-10.2594
ional	-10.2606
▁restaurant	-10.2608
chu	-10.261
▁Ag	-10.2611
▁Pur	-10.2616
▁extension	-10.262
▁zone	-10.262
century	-10.2622
ić	-10.2622
▁commissioned	-10.2623
▁Angel	-10.2625
▁Vice	-10.2628
▁1918	-10.2631
▁highway	-10.2635
▁successfully	-10.2638
▁serves	-10.2639
▁combat	-10.2639
▁guide	-10.2642
▁sequence	-10.2644
▁flu	-10.2646
▁ranked	-10.2649
▁lecture	-10.2649
nov	-10.2654
take	-10.2658
▁Lewis	-10.2662
ech	-10.2666
▁economy	-10.2668
▁tribe	-10.2671
OS	-10.2673
▁hands	-10.2674
▁designated	-10.2675
▁focused	-10.2677
▁normal	-10.2684
▁ice	-10.2685
aki	-10.2689
▁bishop	-10.269
▁1954	-10.269
▁invited	-10.2694
lim	-10.2694
▁hired	-10.2697
hand	-10.2706
▁Zo	-10.2708
▁internal	-10.2709
▁Hay	-10.271
ception	-10.2712
ér	-10.2712
▁Netherlands	-10.2714
▁Kh	-10.2717
▁throw	-10.2717
▁Medical	-10.2718
▁methods	-10.2718
mbo	-10.272
▁converted	-10.2726
▁Sil	-10.2728
Po	-10.2729
▁discover	-10.2741
▁Hal	-10.2742
▁Studio	-10.2748
▁Kat	-10.2749
▁languages	-10.2753
▁drop	-10.2754
▁attempts	-10.2755
.”	-10.2756
▁funds	-10.2765
▁1938	-10.2773
pers	-10.2774
▁expert	-10.2775
.3%	-10.2776
burn	-10.2778
▁5,	-10.2778
▁Technology	-10.278
▁doing	-10.2782
▁vehicles	-10.2784
▁municipal	-10.2784
▁1955	-10.2788
▁Rh	-10.2789
▁Kil	-10.2791
▁repair	-10.2792
itt	-10.2794
▁mono	-10.2797
▁safe	-10.28
▁faced	-10.2801
▁onto	-10.2802
▁mean	-10.2807
▁ultimately	-10.2809
▁weak	-10.2819
▁44	-10.2821
▁1952	-10.2821
▁sum	-10.284
▁Like	-10.2841
▁exception	-10.2844
▁Miss	-10.2861
▁Ji	-10.2862
▁Qua	-10.2865
gor	-10.2865
Lo	-10.2865
▁Baron	-10.2868
▁walls	-10.2879
att	-10.2894
▁64	-10.2899
▁roles	-10.29
▁educated	-10.2902
ull	-10.2906
gon	-10.2908
chron	-10.291
▁herself	-10.2914
▁Atlantic	-10.2915
▁ride	-10.2928
▁bin	-10.2931
▁places	-10.2931
later	-10.2933
▁historic	-10.294
▁1953	-10.294
▁actions	-10.2945
▁honour	-10.2947
▁Mur	-10.2951
▁girls	-10.2956
rest	-10.2962
▁Taylor	-10.2967
▁panel	-10.2973
last	-10.2973
ander	-10.2974
▁improve	-10.2976
▁chain	-10.2981
phy	-10.2983
▁Command	-10.2987
rim	-10.2989
▁dam	-10.2993
organ	-10.2993
▁proposal	-10.2997
▁characteristic	-10.3
▁consisted	-10.301
▁abandoned	-10.301
▁stars	-10.3012
lau	-10.3016
grad	-10.3019
▁Junior	-10.3022
uld	-10.3023
▁centuries	-10.3024
▁opponent	-10.3032
▁implement	-10.3032
▁shared	-10.3032
quest	-10.3036
wide	-10.3037
craft	-10.3037
path	-10.3039
▁Manchester	-10.3041
▁1951	-10.3042
▁Chris	-10.3052
▁Channel	-10.3065
▁solution	-10.3067
▁Wall	-10.3073
▁6,	-10.3078
▁negative	-10.3082
MS	-10.3083
▁pursue	-10.3085
▁Arthur	-10.3087
▁sites	-10.3088
▁finding	-10.309
▁partnership	-10.3091
▁Roger	-10.3094
▁Sel	-10.3095
rating	-10.3095
tial	-10.3097
vor	-10.3104
▁competed	-10.3104
▁really	-10.3106
▁unknown	-10.3107
horn	-10.3107
pho	-10.3115
▁Olympic	-10.3118
▁rich	-10.312
▁electro	-10.3122
mitt	-10.3122
▁contrast	-10.3125
▁episodes	-10.3127
▁Liber	-10.3129
▁constitution	-10.313
▁proved	-10.3131
▁patients	-10.3131
▁recognition	-10.3132
▁fashion	-10.3135
▁plate	-10.3136
▁Spi	-10.314
▁engineering	-10.3142
ously	-10.3146
▁Korean	-10.3146
▁Fire	-10.3146
▁33	-10.3149
▁pull	-10.315
▁fan	-10.3153
▁die	-10.3154
▁Stadium	-10.3155
▁fun	-10.3158
▁opera	-10.3162
▁Native	-10.3163
ault	-10.3167
▁developing	-10.3169
▁institutions	-10.3172
▁bass	-10.3172
▁Tele	-10.3175
▁opportunity	-10.3175
▁withdraw	-10.3176
▁spin	-10.3184
aff	-10.3184
▁Beach	-10.3184
▁institution	-10.3186
▁versions	-10.3188
▁reaction	-10.3188
▁someone	-10.3189
▁engaged	-10.3193
▁argued	-10.3198
mail	-10.3203
▁Down	-10.3214
▁visual	-10.3219
▁Euro	-10.3225
ograph	-10.3228
▁Blo	-10.323
▁Prize	-10.323
▁Olympics	-10.323
▁Bureau	-10.3235
▁Ross	-10.3237
▁ensure	-10.324
▁pieces	-10.3243
▁Well	-10.3247
▁trying	-10.325
▁fur	-10.3251
▁Memorial	-10.3252
▁wish	-10.3254
▁influenced	-10.3255
▁Trust	-10.3255
▁Sar	-10.3257
US	-10.3262
▁tie	-10.3265
▁Dra	-10.3267
▁load	-10.3268
▁labor	-10.3271
▁investment	-10.3273
▁reading	-10.3274
▁dispute	-10.3279
▁letters	-10.328
▁weapons	-10.3283
▁300	-10.3287
▁Place	-10.3288
eau	-10.3291
▁incorporated	-10.3292
▁budget	-10.3293
▁steam	-10.3295
▁nuclear	-10.3295
cover	-10.3298
▁hum	-10.3303
▁storm	-10.3314
▁sustain	-10.3329
▁drawing	-10.3332
▁oldest	-10.3334
▁Dor	-10.3338
▁reign	-10.3339
▁laid	-10.3341
▁environmental	-10.3345
emi	-10.335
▁formal	-10.3352
▁vice	-10.3359
▁sides	-10.3359
▁encounter	-10.3362
▁importance	-10.3364
▁needs	-10.3368
▁Ky	-10.3369
who	-10.3373
▁(5	-10.3373
rill	-10.3374
▁founding	-10.3374
▁planning	-10.3378
ood	-10.3379
▁documentary	-10.3384
▁copies	-10.3386
▁seed	-10.3386
▁2002,	-10.3389
ú	-10.3391
▁rescue	-10.3394
.7%	-10.3394
▁24,	-10.3397
▁Simon	-10.3399
▁alter	-10.3403
▁sons	-10.3403
▁Cape	-10.3404
▁identity	-10.3409
▁killing	-10.341
▁maximum	-10.341
▁junior	-10.3411
.8%	-10.3412
▁Swa	-10.3414
▁Matt	-10.3416
some	-10.3417
▁Cru	-10.3434
▁theater	-10.3434
▁relative	-10.3437
▁harm	-10.3439
▁Today	-10.3445
▁Syria	-10.3451
▁Liberal	-10.3453
▁Squadron	-10.3453
▁rap	-10.3453
▁talent	-10.3456
ER	-10.3457
▁hydro	-10.346
▁mayor	-10.346
hou	-10.3461
▁1919	-10.3466
▁electronic	-10.3467
llen	-10.3477
PS	-10.3477
▁Wei	-10.3481
▁expressed	-10.3483
▁Ontario	-10.3484
▁Short	-10.3485
▁Bol	-10.3486
▁determined	-10.3487
▁steel	-10.3487
▁resigned	-10.349
band	-10.3492
▁Jews	-10.3496
ried	-10.3498
▁carry	-10.3503
cin	-10.3505
▁invasion	-10.3506
▁consul	-10.3509
▁2001,	-10.351
▁Shan	-10.3511
▁bit	-10.3513
▁Islands	-10.3515
▁Infantry	-10.3516
▁airport	-10.3517
Ju	-10.352
▁sym	-10.3522
▁holds	-10.3527
BC	-10.3527
appear	-10.3528
▁regarding	-10.3528
▁root	-10.353
TA	-10.3532
ST	-10.3536
▁strength	-10.3537
▁camera	-10.3537
▁copy	-10.3537
body	-10.354
▁Oak	-10.3551
▁independence	-10.3555
▁Garden	-10.3556
▁pin	-10.3559
fall	-10.356
▁toward	-10.3563
enti	-10.3575
▁demonstrate	-10.3582
uz	-10.3596
▁uncle	-10.3597
ello	-10.3598
▁Just	-10.3601
phe	-10.3604
▁MP	-10.3606
▁animal	-10.3606
£	-10.3608
▁Domin	-10.361
▁kilometres	-10.3611
▁ending	-10.3611
▁stating	-10.3614
▁1936	-10.3624
▁Building	-10.3627
▁ideas	-10.3627
▁defined	-10.3627
dio	-10.3631
▁arts	-10.3632
view	-10.3633
▁Israeli	-10.3637
▁UN	-10.3637
oper	-10.3638
▁slightly	-10.364
▁literary	-10.3643
▁finds	-10.3645
▁constant	-10.3648
▁nor	-10.3648
▁quite	-10.3659
▁1917	-10.3668
▁climate	-10.3669
▁Ul	-10.3669
▁delay	-10.367
▁Ak	-10.3674
▁DVD	-10.3677
▁heard	-10.3677
vit	-10.368
5,000	-10.3682
▁Moscow	-10.3683
▁interior	-10.3683
ook	-10.3689
▁Brazil	-10.3693
▁Mexican	-10.3693
▁prize	-10.3697
▁Steve	-10.37
▁Sweden	-10.3709
▁sale	-10.3712
▁1937	-10.3715
▁Mir	-10.3715
▁Miller	-10.3715
▁Walter	-10.3719
▁Brigade	-10.372
▁opinion	-10.372
▁express	-10.3722
▁installed	-10.3723
▁pur	-10.3723
▁Swedish	-10.3728
▁wait	-10.3733
▁hour	-10.3734
▁Knight	-10.3735
▁Web	-10.3737
▁heavily	-10.3742
▁fit	-10.3742
tell	-10.3746
▁Township	-10.3746
With	-10.3753
▁desire	-10.3756
onia	-10.3757
▁indicate	-10.3757
▁belief	-10.3758
▁Sim	-10.3758
▁Kur	-10.3758
▁jump	-10.3758
▁coin	-10.376
▁acid	-10.3771
stitute	-10.3771
friend	-10.3778
▁(6	-10.3779
uv	-10.378
▁follows	-10.3781
▁Temple	-10.3782
▁neighborhood	-10.3782
▁standing	-10.3785
▁rot	-10.3794
▁maintained	-10.3796
▁yellow	-10.3798
mul	-10.3801
▁explore	-10.3801
wich	-10.3803
▁improved	-10.3806
▁structures	-10.3806
ule	-10.3809
▁weather	-10.3812
▁correct	-10.3813
▁selection	-10.3819
▁Ir	-10.382
▁situated	-10.3822
▁collaboration	-10.3836
▁proper	-10.3836
▁employ	-10.3845
▁Golden	-10.3856
bot	-10.3858
▁Cer	-10.3858
▁brief	-10.3861
▁existence	-10.3863
▁witness	-10.3863
gun	-10.3867
▁lap	-10.3868
▁quo	-10.3868
urge	-10.3868
rag	-10.3869
▁contained	-10.3869
▁volunteer	-10.3871
▁supporting	-10.3871
▁Grant	-10.3872
ched	-10.3883
▁occupation	-10.3885
▁scheme	-10.3885
▁fresh	-10.3888
▁seats	-10.3891
season	-10.3894
▁paintings	-10.3896
▁electric	-10.3896
scribe	-10.3896
▁critics	-10.3898
▁Melbourne	-10.3899
▁factory	-10.39
▁Davis	-10.39
▁hat	-10.3901
▁comedy	-10.3902
▁Holy	-10.3903
▁lawyer	-10.3904
▁Student	-10.3904
▁lies	-10.3905
▁1914	-10.3907
▁Wisconsin	-10.3912
hill	-10.3915
▁trained	-10.3916
leg	-10.3918
▁pan	-10.3919
▁generate	-10.392
▁observed	-10.392
AP	-10.3922
▁violence	-10.3929
▁segment	-10.3929
MC	-10.3931
▁valley	-10.3934
Ra	-10.3937
▁Kim	-10.3937
▁Mass	-10.3942
▁adopt	-10.3943
▁participate	-10.3947
new	-10.3947
type	-10.3948
▁obtain	-10.3951
Da	-10.3953
▁Wy	-10.3954
▁voted	-10.3956
▁34	-10.3957
č	-10.3959
IT	-10.3968
▁articles	-10.3968
▁hero	-10.3972
iel	-10.3976
▁motion	-10.3976
ç	-10.3978
▁Economic	-10.3978
▁Lau	-10.3982
▁Medal	-10.3984
▁clean	-10.3989
▁Fund	-10.399
▁tea	-10.3994
▁add	-10.3998
▁finishing	-10.4001
▁causing	-10.4011
▁sat	-10.4029
▁Fred	-10.403
▁Ron	-10.4032
▁Management	-10.4036
▁passing	-10.4039
▁Ford	-10.4045
▁employees	-10.4046
▁Common	-10.4047
▁sit	-10.4051
▁reasons	-10.4052
▁painter	-10.4059
▁row	-10.4061
▁Constitution	-10.4066
▁god	-10.4067
▁combination	-10.4072
itive	-10.4073
▁decades	-10.4074
▁crowd	-10.4075
▁Kal	-10.4075
kha	-10.4076
▁essential	-10.4077
ffer	-10.4078
▁instance	-10.4079
▁Athletic	-10.4083
▁administrative	-10.4083
▁ceremony	-10.4083
cient	-10.409
▁tail	-10.4093
▁opposite	-10.41
lish	-10.4102
▁entry	-10.4104
▁(16	-10.4105
▁Real	-10.4106
▁Between	-10.4111
SI	-10.4111
▁Nazi	-10.4117
▁Due	-10.4118
▁1935	-10.412
test	-10.4123
▁exclusive	-10.4127
▁occurs	-10.4129
▁deter	-10.413
▁Czech	-10.413
▁Fellow	-10.4131
▁breed	-10.4132
▁enable	-10.414
▁collected	-10.4141
vol	-10.4143
gni	-10.4146
km	-10.4148
▁expand	-10.4148
▁Anna	-10.4154
pra	-10.4155
▁duty	-10.4161
box	-10.4162
▁Sound	-10.4166
▁pal	-10.4169
cra	-10.4171
▁crash	-10.4173
▁revolution	-10.4174
–3	-10.4175
▁producing	-10.4178
▁expedition	-10.4181
▁Harry	-10.4183
▁fighter	-10.4189
ova	-10.4193
▁bed	-10.4196
▁Several	-10.4203
▁scenes	-10.4208
gel	-10.421
▁capture	-10.4211
force	-10.4217
▁Kansas	-10.4218
▁getting	-10.4223
▁chapter	-10.4226
radi	-10.4231
▁Jacob	-10.4232
▁shall	-10.4233
▁Tam	-10.4236
▁grave	-10.4241
▁poetry	-10.4241
▁habitat	-10.4246
▁Christmas	-10.4246
▁Whit	-10.4259
▁lay	-10.4261
foot	-10.4261
▁file	-10.4263
▁cycle	-10.4265
fort	-10.4273
▁Communist	-10.4276
morph	-10.4278
▁regard	-10.4299
▁Studies	-10.4305
▁meta	-10.4308
hard	-10.431
▁notes	-10.4313
▁Chart	-10.4316
▁1929	-10.4316
▁containing	-10.432
▁sixth	-10.432
▁classical	-10.4324
▁affiliate	-10.4328
▁fruit	-10.4328
otic	-10.4329
▁mention	-10.4331
▁description	-10.4332
▁worldwide	-10.4333
dian	-10.4344
AN	-10.4345
▁didn	-10.4346
▁Review	-10.435
▁reception	-10.4353
▁core	-10.4355
▁1900	-10.4357
▁Thor	-10.436
▁Sri	-10.4365
▁views	-10.4369
▁Cuba	-10.437
▁accused	-10.437
▁Roll	-10.4372
▁Kra	-10.4374
▁plane	-10.4379
▁controlled	-10.4381
One	-10.4396
▁Doctor	-10.4396
▁Gor	-10.4397
▁skills	-10.44
▁passes	-10.4402
▁Six	-10.4405
▁squadron	-10.4407
▁Prior	-10.4409
▁introduction	-10.4413
▁Singapore	-10.4416
post	-10.4421
▁legend	-10.4421
▁Ocean	-10.4422
▁Farm	-10.4429
▁heat	-10.443
▁Security	-10.4431
▁monument	-10.4433
▁painted	-10.4434
▁Officer	-10.4436
▁Front	-10.4437
▁venue	-10.4442
▁Cap	-10.4444
▁Television	-10.4446
▁entirely	-10.4448
▁provision	-10.4451
▁seems	-10.4455
▁educational	-10.4458
▁Glo	-10.4459
▁piano	-10.4461
▁Political	-10.4462
▁scientist	-10.4474
▁properties	-10.448
▁Executive	-10.4483
▁replace	-10.4486
▁joining	-10.4488
▁faith	-10.4488
▁Square	-10.4488
▁shell	-10.4494
▁Honor	-10.4499
▁arrest	-10.45
Me	-10.45
DP	-10.4501
Do	-10.4504
▁promise	-10.4505
▁Federation	-10.4511
▁Jen	-10.4512
tage	-10.4517
▁mph	-10.4518
▁raise	-10.4519
▁Reception	-10.452
▁chose	-10.452
▁mix	-10.4521
▁poll	-10.4523
▁twelve	-10.4526
finite	-10.4529
▁freedom	-10.4532
▁actress	-10.4532
▁Engineering	-10.4535
▁assault	-10.454
▁Lincoln	-10.4546
▁Austria	-10.4546
▁Opera	-10.4548
▁raid	-10.4549
▁Modern	-10.455
Ne	-10.4554
▁Diego	-10.4555
DA	-10.4557
nell	-10.4558
▁notice	-10.4563
▁township	-10.4563
▁specifically	-10.4563
▁baseball	-10.4566
▁answer	-10.4566
nish	-10.4567
-18	-10.4569
▁resistance	-10.4569
holder	-10.4575
master	-10.458
▁earliest	-10.4581
▁civilian	-10.4585
▁survived	-10.4586
▁concluded	-10.4588
▁Ang	-10.4589
▁context	-10.4592
wel	-10.4594
▁Bowl	-10.4596
Ho	-10.4599
▁aged	-10.4604
▁expression	-10.4611
▁sole	-10.4612
▁Norman	-10.4613
▁Village	-10.4614
▁Hart	-10.4614
▁uniform	-10.4616
▁agricultural	-10.4619
Mi	-10.462
▁drink	-10.4624
▁Minnesota	-10.4625
▁suburb	-10.4635
▁shoot	-10.4639
▁400	-10.4641
▁1933	-10.4643
▁Though	-10.4645
▁folk	-10.4645
▁Queensland	-10.4649
▁Naval	-10.4649
▁1910	-10.4652
inter	-10.4653
▁criticism	-10.4654
▁sample	-10.4658
▁railroad	-10.4666
▁decade	-10.4667
▁refuge	-10.4672
▁singing	-10.4673
▁Hotel	-10.4675
▁rejected	-10.4678
▁affected	-10.4684
▁regulation	-10.4684
▁Motor	-10.4684
▁Foreign	-10.4687
gri	-10.4691
BS	-10.4693
tile	-10.4693
▁Magazine	-10.4696
▁Tony	-10.47
phone	-10.4701
▁37	-10.4709
▁actual	-10.471
itch	-10.471
▁bodies	-10.4713
▁admitted	-10.4715
▁1934	-10.4717
▁bottom	-10.472
AF	-10.4721
▁Monte	-10.4725
▁Norwegian	-10.4728
▁regularly	-10.4736
▁briefly	-10.4739
▁Stan	-10.4744
▁worth	-10.4748
▁spell	-10.4748
▁Affairs	-10.4749
▁techniques	-10.4764
TC	-10.4766
▁easily	-10.4767
▁inhabitants	-10.4773
▁armed	-10.4775
▁scheduled	-10.4776
ddy	-10.4777
▁Exp	-10.4796
▁38	-10.4797
▁Missouri	-10.4803
▁why	-10.4805
▁Representative	-10.4806
▁exact	-10.4806
▁IV	-10.4806
▁injured	-10.4812
▁Portuguese	-10.4815
▁exercise	-10.4818
▁ethnic	-10.4827
▁1928	-10.4827
▁favour	-10.4828
▁Hollywood	-10.4833
▁Gallery	-10.4833
▁playoff	-10.4836
▁Indonesia	-10.4848
▁learned	-10.4849
▁Battalion	-10.4851
▁items	-10.4852
▁users	-10.4852
▁catch	-10.4854
▁manage	-10.4859
▁Hot	-10.4859
а	-10.486
▁Tech	-10.4863
enberg	-10.4863
▁nothing	-10.4866
▁Upon	-10.4867
▁reaching	-10.4868
gress	-10.4871
▁arrival	-10.4872
▁dr	-10.4875
ending	-10.4878
term	-10.4881
▁Dal	-10.489
gger	-10.4895
▁registered	-10.49
▁merged	-10.4905
▁intention	-10.4906
▁regarded	-10.4909
▁transition	-10.491
▁committed	-10.4911
▁describes	-10.4913
▁secretary	-10.4915
▁Player	-10.4917
zen	-10.4918
▁offering	-10.4919
▁Administration	-10.492
▁determine	-10.492
▁1932	-10.4923
▁merchant	-10.4929
▁Census	-10.4935
chester	-10.4936
▁Sen	-10.4936
▁businesses	-10.4937
▁Tennessee	-10.4938
▁programming	-10.494
▁diver	-10.4941
▁Pass	-10.4941
▁ruled	-10.4943
▁Sav	-10.4947
▁Thi	-10.4949
▁Labour	-10.4953
▁brick	-10.4956
▁Hamilton	-10.4959
▁Glen	-10.4963
▁derived	-10.4968
▁wounded	-10.4969
▁Lieutenant	-10.4971
▁tall	-10.4978
▁Chamber	-10.4987
▁1922	-10.4996
▁aired	-10.4998
phan	-10.5
▁orchestra	-10.5002
▁closely	-10.5005
▁Anne	-10.5012
▁fee	-10.5014
fusion	-10.5019
Com	-10.502
▁1927	-10.502
▁appointment	-10.5023
▁Indiana	-10.5024
▁damaged	-10.5024
▁calling	-10.5025
▁McG	-10.5031
▁sto	-10.5033
face	-10.5034
▁arrive	-10.5039
▁meters	-10.5041
▁discussion	-10.5045
▁Thus	-10.5047
▁stadium	-10.5048
fun	-10.505
▁solid	-10.5052
▁classic	-10.5053
▁phone	-10.5055
▁feeling	-10.5057
▁Democrat	-10.506
ogen	-10.5062
▁About	-10.5062
▁substantial	-10.5063
▁select	-10.5064
′′	-10.5066
▁spirit	-10.5068
▁150	-10.5073
zon	-10.5073
▁attract	-10.5074
election	-10.5076
▁churches	-10.5079
▁drum	-10.5079
▁soil	-10.5088
▁egg	-10.5089
▁dry	-10.5092
▁coal	-10.5093
dynamic	-10.5097
▁Hawk	-10.5098
▁agree	-10.5101
▁consecutive	-10.5103
▁col	-10.5107
▁successor	-10.5108
▁duties	-10.5109
pin	-10.511
▁racing	-10.5115
▁lift	-10.5117
▁racial	-10.512
▁broken	-10.5126
FL	-10.5131
elle	-10.5137
rang	-10.5147
ody	-10.5152
▁landscape	-10.5153
▁translation	-10.5154
▁mental	-10.5159
▁EP	-10.5162
▁dismiss	-10.5163
▁personnel	-10.5163
.0%	-10.5169
▁Howard	-10.5171
▁1921	-10.5178
media	-10.5179
▁ahead	-10.5179
▁Merc	-10.5181
▁looking	-10.5185
▁Wolf	-10.5188
▁lock	-10.519
*	-10.5192
▁possibly	-10.5192
▁Mol	-10.5194
▁Dia	-10.5197
▁Eli	-10.5198
▁Palm	-10.5202
▁evening	-10.5204
▁kick	-10.5205
▁retained	-10.5206
viv	-10.5208
▁Alex	-10.521
▁Country	-10.5215
▁Morris	-10.5221
▁Burn	-10.5224
▁praised	-10.5226
▁brain	-10.5228
▁Qui	-10.5235
▁Auto	-10.5239
▁Reserve	-10.5239
▁lyrics	-10.5245
▁layer	-10.5247
▁Jane	-10.5247
jan	-10.5252
▁chemical	-10.5264
▁Ottoman	-10.5267
▁Carol	-10.5267
▁Lind	-10.5271
▁°	-10.5276
▁Egypt	-10.5279
▁Av	-10.528
▁agency	-10.5283
▁improvement	-10.53
▁arrangement	-10.5302
▁1916	-10.5304
▁shut	-10.5304
▁Rev	-10.5308
lio	-10.5308
▁realize	-10.5308
▁crown	-10.5313
100	-10.5317
▁Mission	-10.5322
posing	-10.5322
▁advocate	-10.5327
▁stopped	-10.5332
▁Iran	-10.5337
While	-10.5338
mour	-10.5338
▁charged	-10.5348
▁delivered	-10.5356
pass	-10.5358
▁parallel	-10.5368
▁attached	-10.5368
▁Allen	-10.5368
▁1931	-10.5371
▁Chap	-10.5372
▁landing	-10.5373
▁tries	-10.5375
including	-10.5379
gli	-10.5382
▁Regional	-10.5383
▁Mah	-10.5386
▁experienced	-10.5391
▁medicine	-10.5393
▁patent	-10.5396
▁mechanism	-10.5399
▁wine	-10.5409
Some	-10.5413
▁accompanied	-10.5415
▁cy	-10.5421
▁shooting	-10.5429
▁Imperial	-10.5431
▁stayed	-10.5432
plan	-10.5436
▁1924	-10.5438
bell	-10.544
▁assumed	-10.5443
▁initiative	-10.5444
scope	-10.5448
tail	-10.5449
▁membership	-10.5449
▁Mayor	-10.5454
▁AD	-10.5458
▁=	-10.5459
▁USS	-10.546
▁stood	-10.5462
▁journey	-10.5463
▁participant	-10.5466
▁Turkish	-10.5467
▁Space	-10.5468
▁portrait	-10.5473
▁Maryland	-10.5475
▁nomination	-10.5487
▁interested	-10.549
▁Frederick	-10.5492
▁recall	-10.5496
▁showing	-10.5501
ipe	-10.5505
▁representing	-10.551
▁Islamic	-10.5511
▁Jam	-10.5512
▁manufacture	-10.5513
▁Juan	-10.5513
▁greatest	-10.5515
▁retain	-10.5518
IN	-10.5519
▁sculpture	-10.5521
▁Saturday	-10.5524
▁Houston	-10.5533
▁prepared	-10.5535
▁demo	-10.5537
▁circuit	-10.554
▁apartment	-10.554
▁Lion	-10.5541
▁1915	-10.5542
▁formerly	-10.5543
▁1912	-10.5544
▁Pet	-10.5545
▁rebel	-10.5546
▁Internet	-10.5548
50,000	-10.5554
▁Samuel	-10.5559
▁Youth	-10.5561
▁selling	-10.5565
▁Shu	-10.5566
▁$5	-10.5568
▁beach	-10.5568
▁Cemetery	-10.5569
▁philosophy	-10.5572
▁neuro	-10.5572
▁Brook	-10.5578
▁Run	-10.5579
▁assistance	-10.5579
▁check	-10.5583
high	-10.5586
▁Nick	-10.5586
▁gate	-10.5594
▁brown	-10.5599
▁Dick	-10.5615
rip	-10.5616
▁Harvard	-10.5624
▁involve	-10.5631
▁distinct	-10.5632
▁Victor	-10.5634
Pro	-10.5635
rank	-10.5637
▁Edinburgh	-10.564
▁typical	-10.5642
▁Buck	-10.5646
▁procedure	-10.565
▁convince	-10.5656
comp	-10.5658
▁flying	-10.5658
▁adjacent	-10.5659
▁clinic	-10.5661
called	-10.5666
▁significantly	-10.5668
uf	-10.5669
▁Norway	-10.567
▁Brian	-10.5678
▁plain	-10.568
▁moral	-10.5684
▁Entertainment	-10.5685
▁predict	-10.5686
▁Puerto	-10.5689
▁restored	-10.5692
▁stress	-10.5693
▁Mun	-10.5694
▁locomotive	-10.5695
▁collapse	-10.5695
▁gift	-10.5699
active	-10.5702
▁Commander	-10.5705
hara	-10.5708
▁reside	-10.5713
load	-10.5714
▁Sab	-10.5714
▁Professional	-10.5715
▁Rick	-10.5726
▁1925	-10.5727
▁criticized	-10.5728
ão	-10.573
itude	-10.5733
▁sort	-10.5733
ED	-10.5735
come	-10.5735
▁rose	-10.5736
▁profit	-10.5736
▁designer	-10.5743
▁suspect	-10.5748
▁42	-10.5751
▁49	-10.5751
▁replacement	-10.5752
▁lose	-10.5752
▁NFL	-10.5753
▁understanding	-10.5754
▁Marie	-10.5755
gui	-10.5756
direct	-10.5757
mobil	-10.5764
▁listen	-10.5773
rug	-10.5773
▁starred	-10.5774
▁category	-10.5777
▁huge	-10.5778
▁Colorado	-10.5781
▁Pin	-10.5781
▁pioneer	-10.5784
bound	-10.5784
New	-10.5786
▁Fel	-10.5789
▁Steven	-10.579
▁deposit	-10.5793
о	-10.5797
▁carrying	-10.5798
▁Eric	-10.58
▁anniversary	-10.58
▁Seven	-10.58
▁1926	-10.58
hir	-10.5806
▁margin	-10.5809
▁Islam	-10.5816
▁faculty	-10.5817
patri	-10.5819
▁intelligence	-10.582
▁consisting	-10.5822
▁Douglas	-10.5823
▁decrease	-10.5823
▁defence	-10.5823
jun	-10.5825
▁headed	-10.5829
▁fill	-10.5829
▁Chu	-10.5838
continent	-10.5841
Since	-10.5847
▁Jeff	-10.5848
▁Billboard	-10.5851
▁Jay	-10.5852
▁caught	-10.5859
▁crossing	-10.5861
▁Kha	-10.5863
▁graduating	-10.5863
▁driving	-10.587
▁unsuccessful	-10.5873
▁elect	-10.5873
▁Imp	-10.5883
▁statue	-10.5886
▁cinema	-10.5891
▁Heart	-10.5891
▁policies	-10.5893
▁prefer	-10.59
▁1923	-10.59
▁legislation	-10.5903
▁Bun	-10.5905
▁separated	-10.5905
▁Switzerland	-10.5906
HS	-10.5909
▁Kin	-10.5909
▁Patrick	-10.5911
▁neighbour	-10.5923
▁notably	-10.5926
▁domain	-10.5927
▁Winter	-10.5932
▁minute	-10.5941
▁apply	-10.5943
▁divorce	-10.5943
▁thick	-10.5944
▁march	-10.5945
▁handle	-10.5945
▁Once	-10.5946
▁reputation	-10.5947
▁technique	-10.5947
▁Palace	-10.5948
▁crisis	-10.595
▁Mississippi	-10.5953
turn	-10.5955
▁Silver	-10.5957
▁reality	-10.5958
shaped	-10.596
▁extremely	-10.5961
▁publishing	-10.5961
▁48	-10.5975
▁coverage	-10.5977
▁manner	-10.5978
▁string	-10.5979
▁illegal	-10.598
▁Moore	-10.5981
▁Anderson	-10.5987
▁Origin	-10.5988
▁associate	-10.5988
▁skin	-10.5988
▁1890	-10.5992
▁advise	-10.5994
▁Senior	-10.5997
▁activist	-10.6001
▁Chairman	-10.6007
▁prisoners	-10.6008
▁battalion	-10.6014
▁Record	-10.6016
▁Fame	-10.6018
ía	-10.6025
lap	-10.6027
onym	-10.6028
ben	-10.603
present	-10.603
▁Miami	-10.6031
▁chamber	-10.6037
▁eat	-10.6039
▁perhaps	-10.6041
▁drawn	-10.6042
▁Express	-10.6045
▁northeast	-10.605
nik	-10.6052
▁pack	-10.6058
▁Ur	-10.6061
▁(15	-10.6067
▁tape	-10.6067
▁bound	-10.6078
▁Bha	-10.6081
▁Third	-10.6087
Star	-10.6096
▁web	-10.6098
▁Len	-10.6099
▁prince	-10.6102
fire	-10.6103
agh	-10.6104
phon	-10.6106
▁finance	-10.6109
▁hearing	-10.611
▁import	-10.6111
▁knock	-10.6112
▁mining	-10.6112
ective	-10.6114
▁Sky	-10.6118
▁publisher	-10.612
ground	-10.6121
▁Dublin	-10.6126
▁CEO	-10.6126
▁qualified	-10.6129
▁swa	-10.6132
▁1911	-10.6133
▁Austrian	-10.6136
▁Hard	-10.6136
▁bid	-10.6137
▁pool	-10.6137
▁genre	-10.6151
▁Sport	-10.6154
▁happen	-10.6162
▁Hugh	-10.6165
▁filed	-10.6172
▁wire	-10.6172
▁Orchestra	-10.618
▁arranged	-10.6184
▁identify	-10.6187
▁Report	-10.6189
▁elder	-10.6195
▁naval	-10.6195
▁Mala	-10.6197
▁$4	-10.6197
!"	-10.6203
▁Margaret	-10.6208
▁perfect	-10.6208
▁Iron	-10.6209
▁colonial	-10.6214
tech	-10.6215
▁presidential	-10.6218
▁Unit	-10.6221
▁planet	-10.6223
▁Children	-10.6226
▁Harris	-10.6227
▁Bab	-10.6232
logy	-10.6238
▁1913	-10.6242
person	-10.6245
▁possess	-10.6247
▁decline	-10.6248
â	-10.6252
▁Communication	-10.6252
▁aspects	-10.6252
▁Nan	-10.6257
even	-10.6262
▁user	-10.6263
▁Railroad	-10.6263
▁operator	-10.6269
▁Senator	-10.6272
▁distributed	-10.6273
▁retreat	-10.6278
ür	-10.6284
▁Beat	-10.6289
▁Moon	-10.6291
▁patrol	-10.6294
▁passage	-10.6298
▁vary	-10.6298
▁Oregon	-10.6301
▁Dean	-10.6309
▁linked	-10.6311
▁instruction	-10.6316
▁fired	-10.632
▁spiritual	-10.6323
ON	-10.6325
▁tunnel	-10.6329
▁achieve	-10.6332
▁manufacturer	-10.6333
troph	-10.6337
▁depth	-10.634
▁abuse	-10.6345
▁controversy	-10.6346
▁Lev	-10.635
▁retail	-10.6353
▁Arizona	-10.6353
▁supposed	-10.6353
▁monitor	-10.6357
▁increasingly	-10.6362
▁popularity	-10.6364
▁trust	-10.6365
▁responsibility	-10.6367
▁universities	-10.6367
▁sin	-10.6367
mouth	-10.638
▁cricket	-10.6381
▁Ltd	-10.6386
▁parliament	-10.6388
▁Gordon	-10.6393
cock	-10.6393
also	-10.6395
▁considerable	-10.6395
▁fu	-10.6396
▁involving	-10.6399
▁Bru	-10.6401
atta	-10.6406
▁prove	-10.6412
▁balance	-10.6413
▁Test	-10.6416
▁sentence	-10.6416
▁rush	-10.6433
▁(7	-10.6433
▁DC	-10.6436
▁carbon	-10.6439
ended	-10.6444
▁Bush	-10.6446
▁cent	-10.6447
▁debuted	-10.6454
▁Brand	-10.6454
▁Anthony	-10.6458
▁revenue	-10.6458
▁ownership	-10.646
▁shore	-10.6461
▁missing	-10.6463
▁terror	-10.6465
chy	-10.647
▁span	-10.6472
ū	-10.6476
▁alcohol	-10.6476
▁regime	-10.6481
▁Die	-10.6483
ł	-10.6483
▁poverty	-10.6483
▁argue	-10.6484
▁immigrant	-10.6486
▁Vienna	-10.6486
crat	-10.6487
related	-10.6488
western	-10.6489
▁substitute	-10.6492
▁bond	-10.6496
▁Greece	-10.6497
▁medium	-10.6501
▁dollar	-10.6504
fit	-10.6505
▁justice	-10.6508
▁Commonwealth	-10.6511
▁speaker	-10.6516
▁chapel	-10.6516
Following	-10.6517
▁franchise	-10.6518
▁circle	-10.6518
▁graphic	-10.6518
▁export	-10.6523
▁Antonio	-10.6523
▁unusual	-10.6532
▁Dream	-10.6533
▁Local	-10.6537
raw	-10.6541
▁commemorat	-10.6547
▁cousin	-10.6547
▁rent	-10.6548
RI	-10.6549
▁climb	-10.655
ID	-10.6554
▁eleven	-10.6557
▁Peace	-10.6561
▁scholarship	-10.6565
▁XI	-10.6566
▁stretch	-10.6572
cott	-10.6576
priv	-10.659
▁denied	-10.659
▁Hindu	-10.6591
▁trace	-10.6595
▁Classic	-10.6596
▁remember	-10.6606
▁temporary	-10.6607
▁soft	-10.6611
▁capable	-10.6615
0.0	-10.6615
bach	-10.6621
▁highlight	-10.6628
▁Beau	-10.6633
rose	-10.6634
chin	-10.665
▁cult	-10.665
▁Mau	-10.6652
▁childhood	-10.6659
▁celebrated	-10.6659
▁surrender	-10.6661
gio	-10.6663
▁filled	-10.6668
▁observation	-10.6672
▁donated	-10.6675
lane	-10.6675
▁FA	-10.6677
▁Swiss	-10.6683
▁Additionally	-10.669
▁declined	-10.6695
▁wooden	-10.6696
▁Kennedy	-10.6704
▁testing	-10.6707
▁bronze	-10.6708
▁Environment	-10.6711
▁constituency	-10.6711
▁Chang	-10.6713
▁continuous	-10.6715
ET	-10.672
▁Lan	-10.6721
▁Quebec	-10.6722
▁carrier	-10.6723
▁signing	-10.6725
▁Engine	-10.6726
▁client	-10.6748
▁Market	-10.6751
▁Conservative	-10.6751
▁offensive	-10.6755
▁vision	-10.6759
▁hot	-10.6761
▁1880	-10.6764
bridge	-10.6764
▁Historic	-10.6764
▁Independent	-10.6766
:00	-10.6769
▁Rights	-10.6771
▁argument	-10.678
▁Colonel	-10.678
▁tackle	-10.6781
▁Reform	-10.6782
▁runner	-10.6782
▁explained	-10.6785
▁Gulf	-10.6786
▁tube	-10.6787
semble	-10.6787
▁storage	-10.6788
level	-10.6791
▁investigate	-10.6791
hold	-10.6792
▁mouth	-10.6794
Su	-10.6795
à	-10.6795
▁Lyn	-10.6798
▁fly	-10.6802
▁biggest	-10.6802
▁deputy	-10.6806
▁ideal	-10.6812
▁concrete	-10.6817
▁visitors	-10.6818
ngel	-10.6819
▁Key	-10.6821
▁Lang	-10.6822
ín	-10.6823
▁achievement	-10.6823
▁41	-10.6824
▁fixed	-10.6832
▁Atlanta	-10.6835
▁Base	-10.6839
▁artistic	-10.6841
▁gender	-10.6846
OR	-10.6849
▁protected	-10.6854
ifying	-10.6856
▁bringing	-10.6861
▁Medi	-10.6865
▁survive	-10.6869
▁memorial	-10.6872
▁hip	-10.6873
▁Hand	-10.6873
▁Gun	-10.6878
▁confront	-10.6879
▁consumer	-10.6886
▁prohibit	-10.6886
▁Judge	-10.689
▁unlike	-10.6891
▁Heritage	-10.6894
cio	-10.69
▁sing	-10.6905
▁earning	-10.691
▁credited	-10.6911
▁Iowa	-10.6913
ppy	-10.6915
▁earth	-10.6916
▁myth	-10.6917
▁Kam	-10.6919
▁Turkey	-10.6921
▁adding	-10.6926
▁Bow	-10.6928
▁premiered	-10.6936
▁dream	-10.6938
▁Barn	-10.6943
▁Cathedral	-10.6945
▁trouble	-10.6949
▁Lane	-10.6953
▁knew	-10.6958
boy	-10.6961
▁Kir	-10.6963
▁studying	-10.6965
▁Hin	-10.6968
▁update	-10.6969
ounce	-10.6972
▁possession	-10.6974
▁concentration	-10.6979
▁Petr	-10.6979
▁Seattle	-10.6984
▁Dark	-10.6985
▁What	-10.6987
▁weekly	-10.6993
▁Now	-10.6993
▁northwest	-10.6994
▁Detroit	-10.6997
▁expect	-10.7002
▁Trade	-10.7002
▁none	-10.7003
▁approval	-10.7005
▁cable	-10.7007
▁choose	-10.701
▁element	-10.7011
▁Jesus	-10.7013
▁secure	-10.7014
▁fishing	-10.7015
▁Hungarian	-10.7016
▁Kentucky	-10.7016
▁Chile	-10.7018
▁parent	-10.7019
▁Region	-10.702
▁residential	-10.7021
▁adaptation	-10.7022
▁Lawrence	-10.7027
▁Crown	-10.7029
▁patron	-10.7031
▁strongly	-10.7037
▁neighbor	-10.7041
All	-10.7042
▁variation	-10.7046
▁Il	-10.7051
▁charter	-10.7053
▁involvement	-10.7055
▁Jordan	-10.7057
▁Sara	-10.7061
▁Karl	-10.7063
▁gang	-10.7066
▁defensive	-10.7072
▁Deputy	-10.7072
▁Johann	-10.708
▁citizen	-10.7081
▁Villa	-10.7083
▁Race	-10.7084
care	-10.7085
▁equivalent	-10.7087
▁suicide	-10.7087
▁representation	-10.7091
ović	-10.7092
boat	-10.7093
▁Malaysia	-10.7098
▁Municipal	-10.7102
▁craft	-10.7102
▁Dave	-10.7106
▁Bou	-10.7109
efficient	-10.7109
▁Hawaii	-10.7113
▁1908	-10.7114
▁net	-10.7118
▁Comm	-10.7119
▁52	-10.7119
▁construct	-10.7122
▁upgrade	-10.7124
▁hockey	-10.7125
▁satellite	-10.7128
и	-10.7128
▁Argentina	-10.7132
▁controversial	-10.7136
▁translated	-10.7136
▁Bern	-10.7137
▁Helen	-10.7139
▁prime	-10.7142
▁NY	-10.7145
▁starring	-10.7147
▁mobile	-10.7148
▁interaction	-10.7148
▁Michel	-10.7148
▁kingdom	-10.7153
▁Gall	-10.7153
▁truck	-10.7162
▁completion	-10.717
▁Donald	-10.7174
▁Leader	-10.7174
▁Belgium	-10.7177
▁Barb	-10.7178
▁otherwise	-10.7189
IP	-10.7191
▁sleep	-10.7193
▁rapidly	-10.7195
▁ranking	-10.7197
▁grown	-10.7199
▁Global	-10.7205
▁debt	-10.7207
azi	-10.7208
▁Tokyo	-10.7212
▁artillery	-10.7219
look	-10.7222
eur	-10.7222
▁pipe	-10.7223
▁Canal	-10.7226
▁drew	-10.7232
▁enhance	-10.7234
▁massive	-10.7237
You	-10.7237
▁relief	-10.7242
▁depend	-10.7244
elli	-10.7255
▁Way	-10.7255
▁Barr	-10.7258
▁Montreal	-10.7261
assi	-10.7262
▁dating	-10.7271
mill	-10.7271
▁Oklahoma	-10.7272
vig	-10.7273
▁Rio	-10.7278
▁thing	-10.728
▁entering	-10.7281
▁Rugby	-10.7284
▁venture	-10.7288
▁terminal	-10.7288
▁influential	-10.7292
▁anything	-10.7293
thetic	-10.7294
▁Energy	-10.7295
▁1906	-10.73
▁formally	-10.7301
▁resolution	-10.7303
wise	-10.7305
▁Jose	-10.7306
stock	-10.7306
▁Zu	-10.7309
▁bay	-10.7309
▁sufficient	-10.731
▁weekend	-10.7311
▁attracted	-10.7311
▁How	-10.7312
▁happened	-10.7316
▁Construction	-10.7318
▁assembly	-10.7318
▁continuing	-10.7318
▁Admiral	-10.7322
α	-10.7322
▁Alan	-10.7322
▁practical	-10.7345
▁tourist	-10.7349
pop	-10.7351
▁Bengal	-10.7357
▁Liverpool	-10.7361
▁cool	-10.7361
▁crop	-10.7366
ă	-10.7368
▁somewhat	-10.7368
▁appearing	-10.7371
▁suffering	-10.7376
▁Eagle	-10.7384
tum	-10.7388
▁Portugal	-10.7392
▁pot	-10.7394
▁virtual	-10.7396
▁automatic	-10.7397
ility	-10.7399
▁Connecticut	-10.7399
▁struck	-10.7401
▁underground	-10.7402
▁1870	-10.7403
▁surrounded	-10.7403
▁defeating	-10.7404
▁Artist	-10.741
▁Kid	-10.7411
▁equipped	-10.7415
aire	-10.7417
▁Convention	-10.7423
rite	-10.7426
▁veteran	-10.7427
▁magic	-10.7427
▁fled	-10.7432
▁Your	-10.7433
▁cold	-10.7433
▁Tower	-10.7434
▁cruise	-10.7438
▁tools	-10.7452
▁kg	-10.7459
▁Maha	-10.7459
▁preparation	-10.7462
scale	-10.7465
▁objective	-10.7467
▁manufacturing	-10.7469
▁ticket	-10.7469
▁Training	-10.747
▁Defense	-10.7473
▁pupil	-10.7473
▁surprise	-10.7477
?"	-10.748
▁Nova	-10.7482
▁touchdown	-10.7485
▁1905	-10.749
▁appropriate	-10.749
▁covering	-10.7491
▁consistent	-10.7496
▁processes	-10.7496
▁Bulgaria	-10.7504
▁departure	-10.7508
▁Cardinal	-10.7512
▁Alfred	-10.7512
▁Agency	-10.7513
▁Transport	-10.7516
▁Dance	-10.7516
▁disorder	-10.7516
▁audio	-10.7517
Although	-10.752
▁convention	-10.7525
▁palace	-10.7525
▁provincial	-10.7528
▁seventh	-10.7528
▁pet	-10.7529
▁bone	-10.7533
fact	-10.7538
▁colleague	-10.754
▁marry	-10.7541
▁executed	-10.7544
▁marine	-10.7549
▁assassin	-10.7555
▁supplies	-10.7555
▁Pala	-10.7557
uous	-10.7559
▁Disney	-10.7559
▁Louisiana	-10.7559
▁Who	-10.756
▁Wright	-10.7565
▁teach	-10.7579
▁ABC	-10.758
▁Our	-10.7586
▁greatly	-10.7586
▁Gil	-10.7591
▁begun	-10.7592
▁Nar	-10.7593
▁creative	-10.7595
▁Nigeria	-10.76
▁hang	-10.76
▁skill	-10.7608
▁whi	-10.761
▁Ryan	-10.7611
▁Apple	-10.7613
▁southwest	-10.7619
▁jazz	-10.7623
▁external	-10.7623
▁(9	-10.7623
▁enjoy	-10.763
▁emergency	-10.7638
▁strategy	-10.7638
▁visiting	-10.7642
▁Matthew	-10.7642
▁advertising	-10.7646
▁Cole	-10.7647
▁compound	-10.765
▁branches	-10.7654
▁wedding	-10.7658
▁Hockey	-10.7662
▁gall	-10.7663
▁mut	-10.7664
▁apparently	-10.7664
▁encouraged	-10.7666
▁payment	-10.7667
mile	-10.767
▁NCAA	-10.767
▁gear	-10.7673
▁recommended	-10.7675
▁1907	-10.7679
▁twin	-10.7679
▁Kit	-10.7681
▁medieval	-10.7686
▁encourage	-10.7687
▁replacing	-10.7694
▁Broadway	-10.7696
▁Low	-10.7698
▁afterwards	-10.7701
▁Morgan	-10.7701
▁Bachelor	-10.7702
▁sudden	-10.7702
▁shock	-10.7704
▁sanct	-10.771
–4	-10.7713
▁manuscript	-10.7714
▁differ	-10.7714
▁understand	-10.7714
▁amateur	-10.7718
▁Daily	-10.7719
▁Current	-10.7722
▁reinforce	-10.7722
profit	-10.7726
▁emperor	-10.7726
▁Nelson	-10.7726
cession	-10.7727
▁Singh	-10.773
General	-10.7732
FM	-10.7734
▁dated	-10.7738
▁Orthodox	-10.7738
▁changing	-10.7742
▁stable	-10.7742
▁frequent	-10.7742
▁Tiger	-10.7746
▁Ever	-10.7748
▁Organization	-10.7759
▁1,000	-10.7768
▁É	-10.7769
zza	-10.7778
▁Culture	-10.7782
▁convert	-10.7784
▁gone	-10.7789
▁Steel	-10.779
▁Five	-10.779
▁erected	-10.779
▁ruling	-10.7791
▁Box	-10.7794
▁wrong	-10.7794
duction	-10.7795
▁grass	-10.7798
▁Kelly	-10.7801
▁submarine	-10.7802
▁stem	-10.7804
▁pit	-10.7809
▁definition	-10.781
▁spend	-10.7814
▁nickname	-10.7814
▁opportunities	-10.7814
▁accomplish	-10.7818
▁heritage	-10.7823
▁transportation	-10.783
▁Syn	-10.7836
▁DNA	-10.7842
▁roughly	-10.7847
▁collaborate	-10.7855
▁curve	-10.7855
▁Associate	-10.7863
▁Authority	-10.7865
▁cited	-10.7869
plane	-10.7874
▁shelter	-10.7875
▁effectively	-10.7876
lax	-10.7878
▁restoration	-10.7879
▁everything	-10.788
▁error	-10.7883
▁architectural	-10.7884
▁McK	-10.7886
▁Alliance	-10.7887
▁remove	-10.7893
▁Bear	-10.7897
▁coastal	-10.7897
▁Electric	-10.7903
game	-10.7907
▁genetic	-10.7907
▁Walker	-10.7907
▁sight	-10.7908
▁Jon	-10.791
▁Cleveland	-10.7912
tention	-10.7912
▁Bruce	-10.7914
fish	-10.7914
▁Albania	-10.7917
▁occasionally	-10.7917
▁Russell	-10.792
▁1909	-10.7921
▁petition	-10.7921
▁evolution	-10.7922
▁whilst	-10.7924
▁visible	-10.7924
▁Jerusalem	-10.7928
▁Rhode	-10.7933
▁mounted	-10.7937
However	-10.794
▁celebration	-10.7944
illo	-10.7948
▁threatened	-10.7949
▁reportedly	-10.7954
▁seal	-10.7956
▁Baltimore	-10.7957
▁Shah	-10.7957
▁surviving	-10.7961
▁thirty	-10.7961
▁truth	-10.7969
▁lease	-10.7973
▁Mak	-10.7979
▁conservative	-10.7985
▁ratio	-10.7985
augh	-10.7986
▁losses	-10.7988
▁liquid	-10.7989
▁southeast	-10.7992
▁Metro	-10.7995
▁ruin	-10.7997
fur	-10.7997
▁warm	-10.8004
▁Cooper	-10.8011
gno	-10.8012
▁surgery	-10.8018
▁Campbell	-10.8019
▁NBA	-10.8021
phil	-10.8022
▁trading	-10.8024
▁Hungary	-10.8026
▁downtown	-10.8027
▁Bible	-10.8029
–6	-10.803
▁minimum	-10.8031
300	-10.8031
uka	-10.8035
▁transmission	-10.8037
▁exile	-10.804
▁hole	-10.8043
▁Glasgow	-10.8047
▁snow	-10.805
▁1902	-10.8063
▁gradually	-10.8064
▁attending	-10.8064
▁Cook	-10.8068
▁dramatic	-10.807
▁Neu	-10.8075
▁participation	-10.8076
▁Father	-10.8081
▁discovery	-10.8086
▁reporter	-10.8087
▁indicated	-10.8091
▁Instead	-10.8092
▁Through	-10.8095
▁elevation	-10.8101
plat	-10.8103
▁supporters	-10.8106
▁Standard	-10.8113
▁Theater	-10.8114
▁Commissioner	-10.8116
▁Distribution	-10.8122
▁Coach	-10.8123
▁advertise	-10.813
▁ruler	-10.8135
pine	-10.8135
▁Franklin	-10.8136
▁modified	-10.8142
▁extent	-10.8143
▁loyal	-10.8143
▁Fleet	-10.8147
▁soul	-10.8149
▁earn	-10.8152
▁assert	-10.8155
▁spending	-10.8161
▁consequence	-10.8163
▁FM	-10.8165
▁Beck	-10.8166
▁immediate	-10.8169
▁Prix	-10.8171
amine	-10.8173
▁widow	-10.8176
▁Billy	-10.8188
▁Treaty	-10.8193
▁workshop	-10.8195
▁Protestant	-10.8201
▁scar	-10.8201
▁output	-10.8203
▁examine	-10.8207
▁beautiful	-10.8209
▁tenure	-10.8211
▁Labor	-10.8214
▁Story	-10.823
▁frequency	-10.823
▁Back	-10.8233
▁1901	-10.824
from	-10.8242
▁maintenance	-10.8247
▁Stewart	-10.8247
▁missile	-10.8247
▁Raj	-10.825
▁execution	-10.8251
▁Historical	-10.8253
▁lieutenant	-10.8256
▁useful	-10.8261
hall	-10.8262
hawk	-10.8262
▁suspended	-10.8264
▁drag	-10.8265
▁attorney	-10.8268
▁qualifying	-10.8269
▁magnet	-10.8273
cum	-10.828
▁Dallas	-10.8282
▁printed	-10.8282
▁Baker	-10.829
▁rapid	-10.8295
▁concerned	-10.8302
▁infrastructure	-10.8306
▁facing	-10.8308
▁Graham	-10.8309
▁Tournament	-10.8311
▁remainder	-10.8311
piece	-10.8314
▁patient	-10.8316
issa	-10.8318
▁illness	-10.832
▁intellectual	-10.8323
▁Stock	-10.8325
▁Bernard	-10.8326
self	-10.8328
▁customers	-10.8341
▁widespread	-10.8345
▁dynasty	-10.8349
▁variant	-10.8349
▁emerged	-10.8353
▁1904	-10.8354
Pri	-10.8357
▁conclusion	-10.8361
▁diploma	-10.8362
▁cook	-10.8375
▁exposed	-10.8378
▁false	-10.8379
dependence	-10.838
▁blow	-10.8381
▁concentrate	-10.8383
Qu	-10.839
▁Birmingham	-10.8391
▁installation	-10.8391
word	-10.8393
▁plus	-10.8396
arrow	-10.8399
▁behalf	-10.84
▁bowl	-10.8402
▁edited	-10.8404
▁Brooklyn	-10.8404
▁Pittsburgh	-10.8409
▁enjoyed	-10.8414
▁demolished	-10.8421
▁violent	-10.8421
▁Natural	-10.8422
card	-10.8422
hour	-10.8424
▁jurisdiction	-10.8426
▁Bristol	-10.8426
speaking	-10.8428
ulf	-10.8428
▁Bomb	-10.8428
cious	-10.8429
▁absence	-10.843
▁grandfather	-10.8434
bank	-10.8437
▁Child	-10.8442
▁Austin	-10.8443
▁infantry	-10.8447
▁specimen	-10.8447
elected	-10.8457
▁noble	-10.8459
▁Ukraine	-10.8464
▁Denmark	-10.8464
▁NBC	-10.8469
▁sentenced	-10.8474
▁radical	-10.8482
née	-10.8491
▁observe	-10.8492
▁Gray	-10.8502
▁treated	-10.8503
▁Every	-10.8512
▁distinguished	-10.852
▁instrumental	-10.8521
▁Croatia	-10.8523
▁employment	-10.8524
▁Call	-10.8528
ı	-10.8538
▁Utah	-10.8538
▁Richmond	-10.8543
▁José	-10.8543
▁describe	-10.855
▁attributed	-10.8551
▁recognise	-10.8555
▁relocated	-10.8555
▁Movement	-10.8555
▁colony	-10.8556
▁Blu	-10.8558
▁injuries	-10.856
▁settlers	-10.8562
▁rebuilt	-10.8562
▁Audi	-10.8563
▁£1	-10.8564
▁coat	-10.8564
▁Such	-10.8565
▁Staff	-10.8568
▁nest	-10.8571
eastern	-10.8571
shore	-10.8574
▁throne	-10.8577
▁Barry	-10.8578
▁reverse	-10.8581
making	-10.8582
▁permit	-10.8584
keeper	-10.8587
▁eliminated	-10.8591
▁Evans	-10.8597
▁boundary	-10.8599
▁Marshall	-10.8603
▁classified	-10.8605
▁penalty	-10.8608
▁ocean	-10.8612
▁interpretation	-10.8616
▁Welsh	-10.8616
enburg	-10.862
▁possibility	-10.8621
▁Information	-10.8621
▁Flor	-10.8622
–17	-10.8624
▁amongst	-10.8628
▁agriculture	-10.8634
▁cemetery	-10.8634
▁1860	-10.8635
▁angle	-10.8636
▁premiere	-10.8638
▁Meanwhile	-10.8642
▁1903	-10.8647
▁sq	-10.865
▁belonged	-10.8652
▁diameter	-10.8656
▁excess	-10.8665
▁Hil	-10.8667
▁Control	-10.8669
▁physician	-10.8678
▁Capital	-10.8678
feld	-10.8678
▁makeup	-10.8679
▁schedule	-10.8687
▁desert	-10.8688
▁guitarist	-10.8692
stream	-10.87
▁deployed	-10.8713
▁bull	-10.8714
▁Cher	-10.8716
▁abroad	-10.8722
▁essay	-10.8726
▁Gate	-10.8728
▁Wang	-10.8734
▁rugby	-10.8735
▁Challenge	-10.8739
▁imperial	-10.8744
▁vast	-10.8747
▁gay	-10.8753
▁Princess	-10.8755
▁Anton	-10.8763
▁Gran	-10.8765
▁Name	-10.877
▁Sarah	-10.8771
▁Jun	-10.8771
how	-10.8773
▁Food	-10.8773
▁Know	-10.878
▁depending	-10.8782
dorf	-10.8783
dependent	-10.8785
▁succeed	-10.8785
▁Metropolitan	-10.8788
▁advisor	-10.8788
▁annually	-10.8789
▁Dragon	-10.8792
▁Alabama	-10.8793
▁extreme	-10.8796
▁youngest	-10.8798
▁preserved	-10.8801
▁electrical	-10.8802
▁steal	-10.8802
▁easy	-10.8806
▁coup	-10.8807
▁timber	-10.8811
▁120	-10.8813
▁Orange	-10.8813
▁Milan	-10.8815
▁junction	-10.8815
▁cave	-10.8816
▁developer	-10.8819
▁pure	-10.882
▁Upper	-10.8834
▁Danish	-10.8834
▁salt	-10.884
▁destruction	-10.8842
flex	-10.8846
▁significance	-10.8846
▁driven	-10.8849
▁mechanical	-10.8855
▁Portland	-10.8862
▁entertainment	-10.8873
▁Register	-10.8874
▁athletic	-10.8882
▁superior	-10.8882
▁Emil	-10.8882
▁researchers	-10.8889
▁Rico	-10.889
▁Venezuela	-10.8891
▁Orleans	-10.8896
▁Trail	-10.8903
▁Model	-10.8903
▁Kirk	-10.8905
▁anyone	-10.8908
▁Taiwan	-10.8914
rav	-10.8916
▁viewers	-10.8916
▁Lou	-10.8918
▁Legacy	-10.8923
▁alliance	-10.8928
▁everyone	-10.8934
▁worship	-10.8945
▁Lock	-10.8946
▁cup	-10.896
▁emphasis	-10.8963
▁liberal	-10.8963
▁weapon	-10.8966
▁escort	-10.8968
▁thin	-10.8972
phor	-10.898
▁valid	-10.8982
▁Medicine	-10.8986
▁Kevin	-10.8986
▁honorary	-10.8996
▁logo	-10.8998
▁Derby	-10.9
▁Berg	-10.9005
▁Persian	-10.9007
Similar	-10.901
▁collective	-10.9014
▁monarch	-10.9022
cross	-10.9027
pell	-10.9035
▁adapted	-10.9037
▁genus	-10.9041
▁sharp	-10.905
▁agencies	-10.9054
▁orbit	-10.9058
▁Wayne	-10.9058
▁Defence	-10.9059
▁clock	-10.9061
▁fifteen	-10.9063
▁rifle	-10.9063
▁secured	-10.9066
▁Psych	-10.9082
▁vertical	-10.9092
▁nurse	-10.9096
▁Single	-10.9098
▁normally	-10.9099
course	-10.9101
▁psycho	-10.9103
▁Charlotte	-10.9105
▁clothing	-10.9105
▁resist	-10.9109
▁monastery	-10.9109
▁proportion	-10.9109
▁mat	-10.9116
▁reduction	-10.9119
▁brigade	-10.9123
▁corporate	-10.9127
▁1899	-10.9131
▁Thompson	-10.9132
▁cabinet	-10.9132
develop	-10.9139
▁strategic	-10.9146
▁pump	-10.9156
▁Rich	-10.9157
▁resident	-10.9162
zzo	-10.917
valu	-10.9173
▁Pont	-10.9192
▁acquisition	-10.9192
▁permission	-10.9193
▁Soon	-10.92
▁Lanka	-10.9202
▁Madrid	-10.9203
▁Jimmy	-10.9208
▁Egyptian	-10.9221
▁Row	-10.9232
▁advice	-10.9234
hem	-10.9237
▁Horn	-10.9238
▁parliamentary	-10.9239
▁Carter	-10.924
▁initiated	-10.9248
versus	-10.9255
▁Hispanic	-10.9266
▁merger	-10.9267
▁intersection	-10.9271
▁anchor	-10.9284
▁acknowledge	-10.929
▁competing	-10.9295
▁earthquake	-10.9299
▁indigenous	-10.9299
▁mistake	-10.9301
▁CBS	-10.9303
▁exploit	-10.9304
▁Secret	-10.9309
▁guilty	-10.9313
▁1898	-10.9316
▁Raja	-10.932
▁lb	-10.9322
▁else	-10.9324
▁Cultural	-10.9327
▁trend	-10.9328
▁Penn	-10.933
▁wealth	-10.9338
▁integrated	-10.9341
▁Urban	-10.9347
▁Pierre	-10.9356
▁package	-10.9356
break	-10.9356
▁exit	-10.9357
rink	-10.936
▁contribute	-10.9368
▁Transportation	-10.9374
▁yield	-10.9374
▁Round	-10.9393
▁thereafter	-10.9393
▁drain	-10.9394
▁Season	-10.9397
▁Legislative	-10.9398
▁solve	-10.9399
▁variable	-10.9403
Throughout	-10.9412
▁Mitchell	-10.9422
▁conversion	-10.9426
▁athlete	-10.9436
▁Drive	-10.9437
▁accurate	-10.9441
▁insurance	-10.9441
▁Dead	-10.9443
▁suitable	-10.945
▁submitted	-10.9455
member	-10.9458
▁ceased	-10.9461
▁Greg	-10.947
▁Romanian	-10.9485
=	-10.9489
▁soundtrack	-10.9493
▁fitted	-10.9494
West	-10.95
▁Finland	-10.9504
▁constitute	-10.9506
▁Manhattan	-10.9517
▁Horse	-10.9518
space	-10.9519
▁territories	-10.9522
▁Broad	-10.9526
▁competitive	-10.9526
▁exam	-10.9534
▁Friday	-10.9535
▁neither	-10.9546
▁1862	-10.9551
▁adventure	-10.956
▁percentage	-10.9566
▁absorb	-10.957
▁neck	-10.957
operative	-10.9574
▁doubt	-10.9579
▁Charlie	-10.9586
itarian	-10.9586
▁solar	-10.9589
▁acclaim	-10.9594
▁ritual	-10.9599
▁charity	-10.9599
front	-10.9601
length	-10.9606
▁1865	-10.9615
▁sang	-10.9624
▁Johnny	-10.9625
smith	-10.9631
▁Tamil	-10.9635
▁completing	-10.9637
▁relation	-10.9641
▁Baptist	-10.9642
▁missed	-10.9645
▁Robinson	-10.9647
▁Unlike	-10.965
▁Bangladesh	-10.9652
▁dangerous	-10.9656
▁Murray	-10.9658
▁dozen	-10.9662
▁Allied	-10.9664
▁Lower	-10.9667
▁cash	-10.9673
owski	-10.9673
–16	-10.9681
▁Harbor	-10.9682
▁eldest	-10.9695
▁Christopher	-10.9705
▁recreation	-10.9705
▁Section	-10.9715
▁Abdul	-10.9716
clusion	-10.9725
▁disaster	-10.973
▁experimental	-10.9732
▁Div	-10.9732
▁mathematics	-10.9734
▁labour	-10.9734
▁bright	-10.9738
▁simultaneous	-10.9739
▁tip	-10.974
▁Muhammad	-10.9744
team	-10.975
▁Nicholas	-10.9754
▁fragment	-10.9754
▁exceed	-10.9754
▁rising	-10.9757
▁Lithuania	-10.9759
▁jail	-10.976
logical	-10.9764
flow	-10.9767
▁Turner	-10.9771
ña	-10.9771
market	-10.9775
▁organize	-10.9777
▁travelled	-10.9793
▁lawsuit	-10.9793
▁emerge	-10.9794
▁fundamental	-10.9798
▁Critical	-10.9798
▁interact	-10.9807
▁remote	-10.9813
▁1895	-10.9817
▁Confederate	-10.9823
▁Susan	-10.9826
▁Gill	-10.983
▁devoted	-10.9833
▁prayer	-10.9833
▁burial	-10.9838
▁Palestinian	-10.9843
▁Romania	-10.9844
▁Case	-10.9844
▁Release	-10.9848
▁1896	-10.9849
▁cattle	-10.9849
▁1864	-10.985
▁RAF	-10.9856
▁Attorney	-10.9862
▁expensive	-10.9862
▁exposure	-10.9867
▁Album	-10.9867
lift	-10.9869
▁Carlos	-10.9872
bili	-10.9876
▁perspective	-10.9877
▁assets	-10.9889
▁residing	-10.9892
▁predecessor	-10.9897
▁Baseball	-10.9898
▁Vancouver	-10.9902
▁servant	-10.9908
▁1861	-10.9917
▁circumstances	-10.9922
▁alternate	-10.9927
▁gross	-10.9938
ör	-10.9941
▁narrative	-10.9942
▁kW	-10.9944
▁condemn	-10.9952
rrell	-10.9953
▁Shin	-10.9967
▁tissue	-10.9968
▁adjust	-10.9972
▁outbreak	-10.9975
▁wealthy	-10.9977
original	-10.9988
▁Byzantine	-10.9992
▁fabric	-10.9992
▁banned	-10.9995
▁holiday	-11.0007
▁Brazilian	-11.0007
▁gap	-11.0015
▁arriving	-11.0017
▁Video	-11.0021
▁administer	-11.0022
▁funeral	-11.0022
▁baby	-11.0031
ño	-11.0032
▁icon	-11.0033
▁Organ	-11.0035
▁closing	-11.0036
▁consist	-11.0038
–15	-11.0039
▁Block	-11.0044
▁examination	-11.0047
▁Again	-11.0048
minute	-11.0053
▁Slav	-11.0057
▁destination	-11.0057
▁partially	-11.0063
▁intercept	-11.0068
▁emotional	-11.0071
▁graduation	-11.0083
▁Leonard	-11.0083
pati	-11.0087
▁airline	-11.0087
ennial	-11.0096
▁conventional	-11.0097
▁conservation	-11.0098
▁warning	-11.0101
▁illustrate	-11.0103
▁Language	-11.0103
▁congregation	-11.0108
▁Abbey	-11.0108
▁Trinity	-11.0108
▁organised	-11.0112
▁estimate	-11.0114
▁accommodate	-11.0123
production	-11.0132
▁resolve	-11.0134
▁Victorian	-11.0142
▁Mother	-11.0144
▁Collection	-11.0149
▁Support	-11.0149
▁soccer	-11.0149
▁particle	-11.015
▁stake	-11.0151
▁implementation	-11.0153
▁Rosa	-11.0162
▁Brisbane	-11.0164
▁Belgian	-11.0169
▁Socialist	-11.0169
▁HMS	-11.0171
▁1897	-11.0176
▁faction	-11.0177
▁Campaign	-11.0179
grant	-11.0186
▁till	-11.0189
▁publish	-11.0194
▁sugar	-11.0196
▁Assistant	-11.02
▁departed	-11.02
▁1885	-11.0211
▁Catherine	-11.0215
▁Alice	-11.0218
▁commitment	-11.0225
▁Prussia	-11.0226
▁flee	-11.0227
▁cavalry	-11.0231
▁slope	-11.0241
▁attitude	-11.0241
Saxon	-11.0242
▁worn	-11.0251
▁teammate	-11.0259
▁moderate	-11.0259
▁Virgin	-11.0261
▁ongoing	-11.0267
▁informed	-11.0267
▁Stanley	-11.0272
▁Sultan	-11.0272
▁characterized	-11.0272
▁Turk	-11.0276
▁wound	-11.0276
guard	-11.0277
▁voting	-11.0277
▁corps	-11.0278
four	-11.0281
▁Shaw	-11.0286
▁Colombia	-11.0303
▁1863	-11.0303
Universit	-11.0308
▁fame	-11.0309
▁minority	-11.031
▁Range	-11.0316
▁Scout	-11.0319
spire	-11.0323
wall	-11.0324
▁soldier	-11.0327
▁Racing	-11.0335
▁apparent	-11.0336
▁Broadcasting	-11.0339
▁descent	-11.0342
brook	-11.0344
trans	-11.0344
▁suppress	-11.0346
▁donation	-11.0348
▁Christianity	-11.0349
▁prepare	-11.0352
▁bachelor	-11.0355
▁alien	-11.0356
▁Ukrainian	-11.036
after	-11.0364
▁Archbishop	-11.0365
trop	-11.0367
▁Benjamin	-11.037
▁jury	-11.0372
▁resemble	-11.0377
▁swimming	-11.0381
German	-11.0385
▁smooth	-11.0386
▁intervention	-11.0391
cylinder	-11.0402
▁cartoon	-11.0402
▁drummer	-11.0405
▁discipline	-11.0407
▁1894	-11.0407
toxic	-11.0408
▁attraction	-11.0411
▁1889	-11.0416
▁corporation	-11.0417
▁Limited	-11.0417
▁Gilbert	-11.0418
▁stab	-11.0419
▁FIFA	-11.0433
▁YouTube	-11.0433
▁Delhi	-11.0434
▁communist	-11.0438
▁Alaska	-11.0438
▁friendship	-11.044
▁withdrew	-11.0443
–10	-11.0445
▁helicopter	-11.0459
▁delegate	-11.0459
▁Harrison	-11.0463
Another	-11.0464
writer	-11.0467
▁promoting	-11.047
brand	-11.047
▁tennis	-11.0471
posi	-11.0475
▁Small	-11.048
▁subsidiary	-11.048
▁clan	-11.0483
▁wage	-11.0485
▁dialect	-11.0486
▁1893	-11.0486
▁prospect	-11.0491
▁engagement	-11.0495
▁Further	-11.0496
▁strengthen	-11.0502
▁grey	-11.0503
▁Universal	-11.0507
▁phrase	-11.0507
▁permitted	-11.051
▁Esp	-11.0516
▁Branch	-11.0517
▁plastic	-11.0519
▁Windows	-11.0522
▁Arkansas	-11.0528
▁enrolled	-11.0528
▁flew	-11.053
▁danger	-11.0534
▁choir	-11.054
▁Century	-11.0544
▁qualification	-11.0544
logist	-11.0545
▁sitting	-11.055
pound	-11.055
▁tension	-11.0555
▁Digital	-11.056
▁Norfolk	-11.0565
▁inhibit	-11.0571
▁romantic	-11.0575
▁demonstration	-11.0581
▁suspension	-11.0581
▁riot	-11.0585
▁resort	-11.0593
–12	-11.0595
▁distinction	-11.0608
John	-11.0608
▁Return	-11.061
▁Oliver	-11.0613
▁coalition	-11.0615
eiro	-11.0617
▁voters	-11.0618
▁physics	-11.0618
national	-11.0621
▁prototype	-11.0623
▁Serbian	-11.0626
▁Wrestling	-11.0634
▁Warren	-11.0639
▁expense	-11.064
▁Advance	-11.064
▁Brun	-11.0641
▁golf	-11.0644
▁Freedom	-11.0647
▁knee	-11.0647
▁inaugural	-11.0661
▁pounds	-11.0665
▁Anglo	-11.0666
▁favorite	-11.0666
▁Ethiopia	-11.0666
▁battery	-11.0677
▁Found	-11.068
▁1888	-11.0682
▁counsel	-11.0693
▁electoral	-11.0693
▁difficulties	-11.0695
▁Hope	-11.0702
▁Mediterranean	-11.0704
▁describing	-11.0704
▁comfort	-11.0704
▁1892	-11.0708
▁1891	-11.0713
▁giant	-11.0716
▁compilation	-11.072
▁Friends	-11.0723
▁Honour	-11.0726
author	-11.0728
▁refuse	-11.073
▁Symphony	-11.0731
▁usage	-11.0731
▁assignment	-11.0731
▁elsewhere	-11.0742
▁stamp	-11.0742
▁gallery	-11.0743
▁siege	-11.0747
▁thirteen	-11.0753
▁preferred	-11.0755
▁formula	-11.076
▁dimension	-11.0775
ün	-11.0776
▁comparison	-11.078
▁quick	-11.0781
▁Afghanistan	-11.079
▁Pearl	-11.0809
▁Chapel	-11.0811
▁Caribbean	-11.0812
▁closure	-11.0814
▁jet	-11.0822
▁confirm	-11.0831
▁Future	-11.0831
claim	-11.0837
▁tight	-11.0838
▁algorithm	-11.084
▁Franco	-11.0851
▁Academic	-11.0856
▁diverse	-11.0863
▁Buddhist	-11.0867
▁Peninsula	-11.0883
▁recognize	-11.0893
▁Gabriel	-11.0894
▁Zone	-11.09
▁Yorkshire	-11.0904
▁complaint	-11.0905
▁legislative	-11.0922
▁flank	-11.0922
▁1881	-11.0922
vari	-11.093
▁Henri	-11.0931
▁Ridge	-11.0933
▁register	-11.0936
ów	-11.0936
▁Originally	-11.0948
▁hyper	-11.0961
▁decorated	-11.0966
chrom	-11.0969
▁discontinu	-11.0971
cigarette	-11.0977
▁Beijing	-11.0977
▁sixteen	-11.0984
▁Rangers	-11.0986
▁Writing	-11.0994
▁define	-11.0996
▁birthday	-11.0999
▁dominant	-11.0999
▁ranging	-11.1009
▁overseas	-11.101
▁confess	-11.1011
▁torpedo	-11.1021
▁fluid	-11.1032
▁legislature	-11.1032
building	-11.1036
▁dialogue	-11.1038
▁leaf	-11.1042
▁universal	-11.1055
▁Mongol	-11.1056
▁gym	-11.1061
▁classification	-11.1065
▁UEFA	-11.1066
▁settle	-11.107
▁Thailand	-11.1072
▁Therefore	-11.1072
▁serial	-11.1072
▁socio	-11.108
▁cooperation	-11.1083
▁measurement	-11.1088
▁removal	-11.1088
▁infection	-11.1089
▁viola	-11.109
▁afternoon	-11.1094
▁Barbara	-11.1095
hydr	-11.1105
▁blind	-11.1105
group	-11.1109
▁outcome	-11.1109
▁Clinton	-11.1111
▁eighteen	-11.1111
▁Spirit	-11.1113
▁electricity	-11.1116
▁loose	-11.1116
▁bout	-11.1117
▁adapt	-11.1118
corn	-11.1125
▁radar	-11.113
▁rebellion	-11.1133
▁extract	-11.1133
▁Tibet	-11.1135
▁Kenya	-11.1137
▁industries	-11.1139
▁Rabbi	-11.1142
▁guarantee	-11.115
▁survivor	-11.115
▁costume	-11.1159
▁Collins	-11.1162
▁welcome	-11.1173
▁analog	-11.1174
▁attendance	-11.1175
▁commenced	-11.1178
▁stick	-11.118
▁Buffalo	-11.1184
▁Furthermore	-11.1184
▁fourteen	-11.1187
▁coordinate	-11.119
▁tropical	-11.119
▁telephone	-11.1196
▁engage	-11.1197
▁preserve	-11.1208
▁temporarily	-11.1212
▁supplement	-11.1218
▁counties	-11.122
▁Armenian	-11.1229
▁Munich	-11.1236
▁Hebrew	-11.1258
▁structural	-11.1263
▁finger	-11.1264
▁originated	-11.1267
▁kilometers	-11.1269
▁introduce	-11.127
▁announcement	-11.1271
▁hypo	-11.1276
▁Lloyd	-11.128
▁recipient	-11.128
▁Saudi	-11.1281
▁topics	-11.1298
▁$6	-11.1301
▁loop	-11.1305
▁wrestling	-11.1315
▁Survey	-11.1315
conscious	-11.1318
▁Hitler	-11.1321
▁evolved	-11.1326
▁awareness	-11.1332
▁Guardian	-11.1334
▁Phoenix	-11.1338
▁symptoms	-11.1343
▁barrel	-11.1348
▁Hampshire	-11.1349
▁stair	-11.135
▁categories	-11.1355
▁inherited	-11.1366
▁Scholar	-11.1366
▁resignation	-11.1372
diction	-11.1372
▁NHL	-11.1372
▁weigh	-11.1374
▁Draft	-11.1376
▁Morning	-11.138
▁usual	-11.1382
▁nephew	-11.1384
▁renovation	-11.1384
▁regain	-11.1384
▁Arena	-11.1386
▁recommendation	-11.1397
▁atmosphere	-11.1401
▁utilize	-11.1401
▁legacy	-11.1403
▁Abraham	-11.1413
▁cancelled	-11.1413
▁Burg	-11.143
▁Adelaide	-11.1436
▁Faculty	-11.1436
▁Berkeley	-11.1436
▁boundaries	-11.1437
▁flash	-11.1438
▁Obama	-11.1443
▁boot	-11.1444
▁Napoleon	-11.1453
▁Trump	-11.1454
▁accessible	-11.1459
▁corruption	-11.1459
▁Conservation	-11.1459
▁biological	-11.1462
▁Architecture	-11.1465
▁Warrior	-11.1465
▁afford	-11.1466
▁cluster	-11.1471
▁Until	-11.1473
▁qualify	-11.1475
▁Initially	-11.1476
▁Eventually	-11.1482
▁enemies	-11.1482
▁trigger	-11.1484
▁cutting	-11.1484
▁artwork	-11.1495
▁neutral	-11.15
▁reject	-11.1509
▁ninth	-11.1511
▁persuade	-11.1517
▁Overview	-11.1518
▁raising	-11.152
▁identical	-11.1523
▁signature	-11.1529
▁conversation	-11.1529
▁Manager	-11.1535
▁queen	-11.1536
▁wore	-11.154
▁Guinea	-11.1542
▁substance	-11.1546
witch	-11.1552
▁Craig	-11.156
▁Serbia	-11.1561
▁interchange	-11.1564
▁valuable	-11.1564
▁beauty	-11.1564
▁belonging	-11.1565
▁Crime	-11.1571
▁Bryan	-11.1572
▁Industrial	-11.1576
▁Pedro	-11.1578
▁Blood	-11.1582
▁Newcastle	-11.1588
▁tune	-11.1598
▁Demographics	-11.1599
▁undergraduate	-11.1603
▁reducing	-11.1611
▁Microsoft	-11.1617
▁distinguish	-11.1618
▁Technical	-11.1629
▁mineral	-11.1631
▁impossible	-11.1635
psych	-11.1639
▁excellent	-11.1641
▁evil	-11.1643
▁Full	-11.1644
world	-11.1645
▁kidnap	-11.1647
▁Petersburg	-11.1647
▁isolated	-11.1647
hurst	-11.1649
▁competitor	-11.1652
▁Together	-11.1658
▁Circuit	-11.1664
▁elite	-11.1665
▁riding	-11.1673
▁Grove	-11.1675
▁casualties	-11.1688
▁ministry	-11.1688
▁Cincinnati	-11.1694
▁Policy	-11.1694
cision	-11.1702
▁random	-11.1709
▁violin	-11.1712
▁celebrate	-11.1714
▁classroom	-11.1716
▁Florence	-11.1721
shaw	-11.1722
credit	-11.1722
▁ambassador	-11.1724
▁Cricket	-11.1724
▁Jamaica	-11.1724
▁happy	-11.1732
▁terminus	-11.1736
▁rabbi	-11.1749
▁altar	-11.175
eering	-11.1764
▁Basketball	-11.1766
▁Iceland	-11.1766
script	-11.1778
▁Appeal	-11.1784
▁Industry	-11.179
▁Type	-11.179
▁bullet	-11.1793
▁barrier	-11.1796
▁Methodist	-11.1808
oriented	-11.1808
▁distinctive	-11.181
▁precede	-11.1812
▁Hamburg	-11.1823
▁sovereign	-11.1826
▁sequel	-11.1826
▁Ralph	-11.1832
▁managing	-11.1834
▁download	-11.1836
▁Jerry	-11.1854
▁fasci	-11.1854
▁Iranian	-11.1855
▁ballot	-11.1857
▁Those	-11.186
▁supplied	-11.1868
▁discharge	-11.1886
▁Jazz	-11.1887
▁hidden	-11.1892
establish	-11.1893
▁Protection	-11.1898
▁Direct	-11.1898
▁animated	-11.1898
▁Drama	-11.1906
▁Barcelona	-11.191
▁absolute	-11.191
▁citing	-11.1919
▁contestant	-11.192
▁Hudson	-11.1923
▁Titan	-11.1925
▁interface	-11.1926
▁imprisoned	-11.1929
▁rhythm	-11.1929
▁scrap	-11.194
film	-11.1941
▁altitude	-11.1947
appa	-11.1948
about	-11.1949
▁layout	-11.195
▁blame	-11.1951
▁breast	-11.1956
▁Simpson	-11.1959
▁Location	-11.196
▁mixture	-11.1963
▁participating	-11.1965
▁gauge	-11.1965
volv	-11.1969
▁elevated	-11.1971
▁Arabia	-11.1973
▁fault	-11.1979
▁enforcement	-11.1984
winning	-11.1992
▁mirror	-11.1996
▁theatrical	-11.1996
▁editorial	-11.2003
grave	-11.2003
▁Computer	-11.2008
▁Movie	-11.201
▁punishment	-11.2014
▁employee	-11.2019
week	-11.2021
▁internet	-11.2023
▁scandal	-11.2027
▁Soccer	-11.2039
▁drove	-11.2044
▁Sym	-11.2044
▁shopping	-11.206
▁Trophy	-11.2065
▁robot	-11.2073
▁Thunder	-11.208
▁explosion	-11.2088
▁Jonathan	-11.2094
▁abandon	-11.2098
▁Amsterdam	-11.2107
▁conquer	-11.2108
▁strain	-11.2114
▁Junction	-11.2122
▁trustee	-11.2124
plication	-11.2124
▁Territory	-11.2125
▁Dakota	-11.2132
▁Stuart	-11.2132
▁Venice	-11.2136
▁enterprise	-11.2138
▁Athens	-11.2139
▁eligible	-11.2144
▁hectares	-11.2144
▁crystal	-11.2144
▁fifty	-11.2144
▁smoke	-11.2145
▁intense	-11.2154
▁freight	-11.2163
▁revival	-11.2163
▁sword	-11.2174
▁elementary	-11.2175
▁uncertain	-11.2188
▁virus	-11.2194
▁odd	-11.2194
▁framework	-11.2196
▁innovation	-11.2207
▁sensor	-11.2226
▁mutual	-11.2228
▁Julie	-11.2232
▁firing	-11.2242
▁consumption	-11.225
▁Exchange	-11.2257
▁emphasize	-11.2257
▁muscle	-11.2263
▁premise	-11.2263
▁Vincent	-11.2282
▁Multi	-11.2282
▁familiar	-11.2288
▁archaeological	-11.2288
▁voyage	-11.2288
▁empire	-11.2295
▁deemed	-11.2302
▁efficiency	-11.2307
▁Keith	-11.2311
▁ancestor	-11.2326
▁auction	-11.2328
▁saving	-11.2332
▁perceived	-11.2332
▁sketch	-11.2332
▁Wilhelm	-11.2339
▁steep	-11.2339
▁Panama	-11.234
▁theories	-11.2341
▁dissolved	-11.2345
founded	-11.237
▁behaviour	-11.2371
▁placing	-11.2371
▁laboratory	-11.2378
▁relegated	-11.2383
▁wrestler	-11.2383
▁assessment	-11.2383
▁Economy	-11.239
▁poison	-11.24
Despite	-11.2402
▁accompany	-11.2409
▁Ottawa	-11.2409
▁diplomatic	-11.2414
▁Shanghai	-11.2415
▁violation	-11.2424
▁Comics	-11.2424
▁disagree	-11.2428
▁disbanded	-11.2428
▁drill	-11.2431
▁negotiate	-11.2434
▁worst	-11.2435
▁Bosnia	-11.2436
▁regulate	-11.244
▁artificial	-11.2441
▁fortune	-11.2448
▁blog	-11.2455
▁shoe	-11.2465
▁Nevertheless	-11.2466
▁technologies	-11.2466
▁comprehensive	-11.2486
▁favourite	-11.249
▁underwent	-11.2492
▁seminar	-11.2493
▁Commerce	-11.2505
▁Cinema	-11.2516
▁disturb	-11.2524
▁summit	-11.2527
Alexandr	-11.2529
▁receptor	-11.2531
▁Manuel	-11.2531
▁mainstream	-11.2541
▁Primary	-11.255
▁keyboard	-11.2553
▁Lauren	-11.2556
▁indicating	-11.2564
▁Bobby	-11.2569
▁cathedral	-11.257
▁Finnish	-11.2571
▁sharing	-11.2585
▁Gregory	-11.259
▁Micro	-11.2591
▁mosque	-11.2616
▁privilege	-11.2635
▁announce	-11.2646
▁mandate	-11.2652
▁strange	-11.2673
▁Adventure	-11.2674
▁molecule	-11.2674
▁Roosevelt	-11.2681
▁restore	-11.2684
▁borrow	-11.2701
▁explanation	-11.2707
▁relevant	-11.2714
▁Storm	-11.2717
▁enlisted	-11.272
▁Tyr	-11.2724
▁garrison	-11.2727
▁Vegas	-11.2728
▁Constant	-11.2734
▁Intelligence	-11.274
▁explicit	-11.274
structure	-11.274
▁admit	-11.2783
▁elaborate	-11.2786
▁Lebanon	-11.2786
▁Slovak	-11.2806
▁remix	-11.2806
▁worse	-11.2816
▁dancing	-11.282
▁Joint	-11.2822
scape	-11.2825
▁Machine	-11.2827
▁Performance	-11.2833
▁Nashville	-11.2833
▁ceiling	-11.284
▁fossil	-11.284
▁merely	-11.284
▁coffee	-11.2846
▁Jefferson	-11.2846
▁inducted	-11.285
▁Renaissance	-11.2853
▁horror	-11.2853
▁occupy	-11.2853
ovich	-11.2864
▁animation	-11.2867
▁incorporate	-11.2867
▁obvious	-11.2873
▁instructor	-11.2881
▁Isabel	-11.2887
▁Stanford	-11.2889
▁immigration	-11.29
▁Zhang	-11.2907
families	-11.2911
▁societies	-11.294
“	-11.2945
▁doctrine	-11.2947
▁universe	-11.2947
▁stereo	-11.2951
▁decoration	-11.2954
▁empty	-11.2954
▁Financial	-11.296
▁Hurricane	-11.296
▁Google	-11.296
▁hybrid	-11.2967
▁precise	-11.2967
▁Cameron	-11.2967
▁extinct	-11.297
▁allegations	-11.2974
second	-11.2976
▁shield	-11.2981
▁unanimous	-11.2987
▁consultant	-11.2987
▁Guild	-11.2995
▁basin	-11.3009
▁configuration	-11.3021
▁knight	-11.3025
▁Partners	-11.3028
rrington	-11.3028
▁Relations	-11.3029
▁routine	-11.3042
court	-11.3047
▁Palestine	-11.3048
▁Circle	-11.3055
▁Wellington	-11.3057
▁Legend	-11.3062
▁oxygen	-11.3069
▁convoy	-11.3076
▁renewed	-11.3083
▁Shakespeare	-11.3096
▁persist	-11.3096
▁radiation	-11.3096
▁suffer	-11.3101
▁fulfill	-11.3103
▁Private	-11.3103
▁$7	-11.3109
François	-11.311
▁Writer	-11.3118
▁combine	-11.3119
▁bacteria	-11.3124
▁Article	-11.3124
▁psychology	-11.3124
Cycl	-11.3135
South	-11.3137
▁manifest	-11.3144
▁Auckland	-11.3144
songwriter	-11.316
▁teeth	-11.3165
▁Ernest	-11.3165
▁sacrifice	-11.3172
▁bonus	-11.3173
▁praise	-11.3181
▁restrictions	-11.3192
▁syndrome	-11.3199
▁Next	-11.32
▁exhaust	-11.3206
▁horizontal	-11.3206
▁entrepreneur	-11.3213
▁judicial	-11.3213
▁Ferdinand	-11.322
▁Concert	-11.3228
▁Contemporary	-11.3234
1⁄2	-11.3234
▁Diamond	-11.3242
▁taste	-11.3245
▁torture	-11.3245
▁bottle	-11.3246
▁prestigious	-11.3248
▁companion	-11.3248
▁jewel	-11.325
▁acoustic	-11.3255
▁academy	-11.3255
▁Aviation	-11.3262
▁renowned	-11.3269
▁decree	-11.3274
▁militia	-11.329
▁Wheel	-11.329
▁referring	-11.329
▁profession	-11.3291
▁Georg	-11.3291
▁treasure	-11.3297
▁understood	-11.3297
▁zero	-11.3298
ière	-11.3317
▁Institution	-11.3318
▁creature	-11.3325
▁relieve	-11.3329
cultural	-11.3334
▁cotton	-11.3339
leigh	-11.3344
▁guidance	-11.3346
▁abstract	-11.3346
▁exterior	-11.3353
▁clergy	-11.3367
▁quiet	-11.3367
▁Formula	-11.3369
▁Agriculture	-11.3381
▁filter	-11.3388
▁defect	-11.339
▁Dennis	-11.3395
▁Volunteer	-11.3402
volution	-11.3402
▁Literature	-11.3409
▁premier	-11.3415
▁kitchen	-11.3416
▁amendment	-11.3416
▁aesthetic	-11.3416
▁Lodge	-11.3417
▁rebounds	-11.3424
▁Murphy	-11.3431
▁Legion	-11.3438
▁aggressive	-11.3451
▁Cardiff	-11.3451
▁coincide	-11.3453
▁Delaware	-11.3459
▁revised	-11.3459
▁requiring	-11.3466
▁Spencer	-11.3466
▁Diocese	-11.3473
▁admission	-11.3475
child	-11.3477
▁administrator	-11.348
▁Watson	-11.348
▁Commercial	-11.3487
▁Formation	-11.3487
▁Laboratory	-11.3488
▁contributor	-11.3494
▁aviation	-11.3496
▁acquire	-11.3505
▁Nebraska	-11.3508
▁assume	-11.351
▁database	-11.3517
▁creator	-11.3523
▁Anglican	-11.353
lusive	-11.3531
▁Enterprise	-11.3537
▁secular	-11.3537
▁transaction	-11.3537
▁Scotia	-11.3544
▁Ultimate	-11.3551
▁ammunition	-11.3551
▁illustration	-11.3551
▁complement	-11.3558
released	-11.3576
▁Facebook	-11.3594
▁pregnant	-11.3594
writing	-11.3598
▁ordained	-11.3601
▁Patriot	-11.3602
▁Warsaw	-11.3602
▁circulation	-11.3609
▁impressed	-11.3609
▁contributing	-11.3616
▁separation	-11.3616
▁Ambassador	-11.363
▁survival	-11.363
language	-11.3634
▁Competition	-11.3645
▁array	-11.3661
school	-11.3664
▁certificate	-11.3666
▁modification	-11.3666
▁integration	-11.3666
▁excavation	-11.3674
▁Friedrich	-11.3674
▁Harvey	-11.3681
▁Nepal	-11.3691
▁clerk	-11.371
▁impression	-11.3714
▁stag	-11.3714
▁harvest	-11.3717
▁impressive	-11.3732
▁pursuit	-11.3732
▁ordinary	-11.3732
white	-11.3737
▁incumbent	-11.3739
▁Estonia	-11.374
▁reservoir	-11.3754
▁summary	-11.3754
▁carriage	-11.3754
▁Principal	-11.3761
▁Twitter	-11.3761
▁theoretical	-11.3761
▁Gothic	-11.3761
▁diocese	-11.3776
▁retiring	-11.3776
▁migration	-11.379
▁Franz	-11.3791
▁compiled	-11.3791
▁Nevada	-11.3798
AIDS	-11.3809
▁Airlines	-11.3821
▁Citizen	-11.3827
▁Animal	-11.3827
▁inventor	-11.3829
cellular	-11.3833
▁abolished	-11.3842
▁emerging	-11.3857
▁Amazon	-11.3857
▁£2	-11.388
▁varied	-11.3897
▁induce	-11.3898
▁relating	-11.3901
▁homosexual	-11.3908
synthesis	-11.3909
▁reconstruction	-11.3916
▁revolt	-11.3931
issue	-11.3933
▁divide	-11.3937
▁Present	-11.3948
▁registration	-11.3975
▁Bennett	-11.3975
▁swim	-11.3977
screen	-11.3979
▁exploration	-11.3983
▁sweet	-11.3983
▁Election	-11.3983
cluding	-11.399
▁replica	-11.3994
▁Elementary	-11.3998
▁Brunswick	-11.3998
trust	-11.4
sexual	-11.4005
▁curriculum	-11.4005
connect	-11.4024
▁Punjab	-11.4028
▁massacre	-11.4028
▁Aaron	-11.4031
▁Antarctic	-11.4035
▁Wonder	-11.4036
▁warrior	-11.4043
written	-11.4043
▁Milwaukee	-11.405
▁quantum	-11.4058
▁equation	-11.4058
▁quit	-11.4064
▁easier	-11.4073
▁membrane	-11.4088
▁Ghana	-11.4096
▁clothes	-11.4104
▁Electronic	-11.4111
▁autumn	-11.4111
▁encompass	-11.4111
▁breath	-11.4119
▁releasing	-11.4126
▁Number	-11.4126
▁stint	-11.4127
▁predominantly	-11.4134
ordination	-11.4137
▁boost	-11.4138
▁Politics	-11.4141
▁hp	-11.4152
▁consume	-11.4156
ław	-11.4164
▁Stefan	-11.4173
▁Double	-11.4179
▁psychological	-11.4187
▁emotion	-11.4197
▁Style	-11.4232
zzle	-11.4246
electric	-11.425
▁phenomenon	-11.4256
▁Bavaria	-11.426
▁philosopher	-11.4263
▁Ahmad	-11.4263
formerly	-11.4267
▁Westminster	-11.4271
▁imprisonment	-11.4279
▁dinner	-11.4279
▁zoo	-11.4283
▁certified	-11.4286
▁siblings	-11.4286
▁prompted	-11.4286
▁democracy	-11.4302
▁referendum	-11.431
▁assembled	-11.431
▁Wallace	-11.4311
▁Nottingham	-11.4325
▁harbour	-11.4325
▁Cornwall	-11.4325
▁Indianapolis	-11.4325
▁statistics	-11.4333
▁Belarus	-11.4333
▁Interior	-11.4341
▁diesel	-11.4342
▁stolen	-11.4342
▁discrimination	-11.4348
▁furniture	-11.4348
▁Sheffield	-11.4348
▁Argentine	-11.4356
▁exclude	-11.4364
▁Macedonia	-11.4364
▁Somali	-11.4369
▁implicat	-11.4372
▁invitation	-11.4388
▁Arnold	-11.4395
▁abortion	-11.4403
▁preparing	-11.4403
▁Brahm	-11.4406
▁enthusiast	-11.4411
▁Algeria	-11.4418
▁nineteenth	-11.4434
▁Cavalry	-11.4434
▁Cabinet	-11.4442
▁Isaac	-11.4442
▁improving	-11.445
▁bulk	-11.4451
▁Helm	-11.4467
▁terrain	-11.4473
▁victories	-11.4481
▁Somerset	-11.4481
▁sediment	-11.4481
▁Expedition	-11.4497
▁protagonist	-11.4528
▁temper	-11.4531
▁conjunction	-11.4536
Brien	-11.454
▁apprentice	-11.4544
▁dubbed	-11.4544
▁criteria	-11.4552
▁thorough	-11.456
▁Azerbaijan	-11.4568
▁Columbus	-11.4568
▁automobile	-11.4568
▁Maurice	-11.4568
▁Chronicle	-11.4576
▁Yellow	-11.4576
▁confidence	-11.4584
▁threw	-11.4584
▁warfare	-11.4584
▁deliberate	-11.4592
▁evident	-11.4592
▁breach	-11.4592
▁Montgomery	-11.4608
▁memoir	-11.4616
▁Etymology	-11.4623
▁stability	-11.4625
▁Krishna	-11.4631
▁welfare	-11.4631
▁regulator	-11.4631
▁undertaken	-11.4647
▁ornament	-11.4648
▁democratic	-11.4655
▁Climate	-11.4655
▁valve	-11.4665
▁diversity	-11.4672
▁judgment	-11.4679
▁striking	-11.4704
built	-11.4706
Between	-11.471
▁inhabited	-11.472
▁remind	-11.4724
▁Frankfurt	-11.4728
▁Sparta	-11.4739
▁circum	-11.4744
▁literacy	-11.4752
▁rational	-11.4756
▁Artillery	-11.476
▁confused	-11.476
▁wreck	-11.4768
▁enzyme	-11.4776
▁Jacques	-11.4792
▁Course	-11.4793
▁identification	-11.4809
▁stall	-11.4811
▁absent	-11.4817
▁blade	-11.4818
▁Cliff	-11.4821
▁Memphis	-11.4825
▁Essex	-11.4825
wheel	-11.4841
▁Olympia	-11.4841
▁rejoin	-11.4841
dimensional	-11.4864
▁explosive	-11.4866
▁width	-11.4874
first	-11.4883
▁communicate	-11.489
East	-11.4891
▁Nikola	-11.4898
▁Scientific	-11.4906
▁motorcycle	-11.4915
▁wicket	-11.4923
▁Franc	-11.4928
▁compensation	-11.4931
⁄	-11.4939
▁Reynolds	-11.4939
▁peasant	-11.4939
▁streak	-11.4939
▁Quarter	-11.4939
▁deployment	-11.4956
▁expelled	-11.4956
▁harass	-11.4956
▁Hopkins	-11.4964
▁revenge	-11.4972
▁silent	-11.4972
▁delegation	-11.4997
▁Subsequently	-11.4997
▁$8	-11.5
▁Pradesh	-11.5005
▁Gibson	-11.5005
ñ	-11.5009
▁convey	-11.5022
escence	-11.5023
▁intermediate	-11.5039
▁declaration	-11.5039
▁IBM	-11.504
▁bureau	-11.5047
▁ghost	-11.5047
▁Official	-11.5055
▁accommodation	-11.5055
▁Study	-11.5064
▁territorial	-11.5072
▁orientation	-11.5072
Chinese	-11.5082
▁Chancellor	-11.5114
▁Dynasty	-11.5114
▁comprising	-11.5114
▁beneath	-11.5114
▁senator	-11.5132
▁Valentin	-11.515
▁knots	-11.5156
▁distant	-11.5156
▁relegation	-11.5164
▁innovative	-11.5164
▁Monument	-11.5164
▁adequate	-11.5172
▁authentic	-11.5172
▁vegetation	-11.5172
▁retire	-11.5188
▁Safety	-11.5189
▁showcase	-11.519
▁antenna	-11.5198
▁blend	-11.5199
▁harsh	-11.5207
while	-11.5209
▁predator	-11.5211
▁calculate	-11.5215
▁Vladimir	-11.5223
produced	-11.5227
▁unexpected	-11.524
▁conceived	-11.5248
▁ultra	-11.525
▁Benedict	-11.5266
▁Boulevard	-11.5274
▁Solomon	-11.5274
▁compromise	-11.5282
▁[...]	-11.5291
▁aftermath	-11.5292
▁Lutheran	-11.53
▁licence	-11.53
▁Brussels	-11.5308
▁mathematical	-11.5308
▁Scots	-11.5309
titled	-11.5313
text	-11.5315
▁tobacco	-11.5317
▁HIV	-11.5325
▁Provincial	-11.5342
▁navigation	-11.5342
▁hypothesis	-11.5351
▁LGBT	-11.5377
▁reluctant	-11.5377
▁currency	-11.5385
▁evaluation	-11.5385
▁Speaker	-11.5385
▁twist	-11.5385
▁crucial	-11.5394
▁PlayStation	-11.5402
▁lobby	-11.5402
▁optical	-11.5403
▁joke	-11.5407
▁Presbyterian	-11.5411
▁Sierra	-11.5411
▁monster	-11.5412
▁statute	-11.542
É	-11.6091
#	-11.6716
ć	-12.1203
‘	-12.1851
ã	-12.5489
